{
  "version": "1.0",
  "truncation": {
    "direction": "Right",
    "max_length": 512,
    "strategy": "LongestFirst",
    "stride": 0
  },
  "padding": {
    "strategy": {
      "Fixed": 512
    },
    "direction": "Right",
    "pad_to_multiple_of": null,
    "pad_id": 1,
    "pad_type_id": 0,
    "pad_token": "<pad>"
  },
  "added_tokens": [
    {
      "id": 0,
      "content": "<s>",
      "single_word": false,
      "lstrip": false,
      "rstrip": false,
      "normalized": true,
      "special": true
    },
    {
      "id": 1,
      "content": "<pad>",
      "single_word": false,
      "lstrip": false,
      "rstrip": false,
      "normalized": true,
      "special": true
    },
    {
      "id": 2,
      "content": "</s>",
      "single_word": false,
      "lstrip": false,
      "rstrip": false,
      "normalized": true,
      "special": true
    },
    {
      "id": 3,
      "content": "<unk>",
      "single_word": false,
      "lstrip": false,
      "rstrip": false,
      "normalized": true,
      "special": true
    },
    {
      "id": 4,
      "content": "<mask>",
      "single_word": false,
      "lstrip": true,
      "rstrip": false,
      "normalized": true,
      "special": true
    }
  ],
  "normalizer": null,
  "pre_tokenizer": {
    "type": "ByteLevel",
    "add_prefix_space": false,
    "trim_offsets": true,
    "use_regex": true
  },
  "post_processor": {
    "type": "RobertaProcessing",
    "sep": [
      "</s>",
      2
    ],
    "cls": [
      "<s>",
      0
    ],
    "trim_offsets": true,
    "add_prefix_space": false
  },
  "decoder": {
    "type": "ByteLevel",
    "add_prefix_space": true,
    "trim_offsets": true,
    "use_regex": true
  },
  "model": {
    "type": "BPE",
    "dropout": null,
    "unk_token": null,
    "continuing_subword_prefix": "",
    "end_of_word_suffix": "",
    "fuse_unk": false,
    "byte_fallback": false,
    "ignore_merges": false,
    "vocab": {
      "<s>": 0,
      "<pad>": 1,
      "</s>": 2,
      "<unk>": 3,
      "<mask>": 4,
      "!": 5,
      "\"": 6,
      "#": 7,
      "$": 8,
      "%": 9,
      "&": 10,
      "'": 11,
      "(": 12,
      ")": 13,
      "*": 14,
      "+": 15,
      ",": 16,
      "-": 17,
      ".": 18,
      "/": 19,
      "0": 20,
      "1": 21,
      "2": 22,
      "3": 23,
      "4": 24,
      "5": 25,
      "6": 26,
      "7": 27,
      "8": 28,
      "9": 29,
      ":": 30,
      ";": 31,
      "<": 32,
      "=": 33,
      ">": 34,
      "?": 35,
      "@": 36,
      "A": 37,
      "B": 38,
      "C": 39,
      "D": 40,
      "E": 41,
      "F": 42,
      "G": 43,
      "H": 44,
      "I": 45,
      "J": 46,
      "K": 47,
      "L": 48,
      "M": 49,
      "N": 50,
      "O": 51,
      "P": 52,
      "Q": 53,
      "R": 54,
      "S": 55,
      "T": 56,
      "U": 57,
      "V": 58,
      "W": 59,
      "X": 60,
      "Y": 61,
      "Z": 62,
      "[": 63,
      "\\": 64,
      "]": 65,
      "^": 66,
      "_": 67,
      "`": 68,
      "a": 69,
      "b": 70,
      "c": 71,
      "d": 72,
      "e": 73,
      "f": 74,
      "g": 75,
      "h": 76,
      "i": 77,
      "j": 78,
      "k": 79,
      "l": 80,
      "m": 81,
      "n": 82,
      "o": 83,
      "p": 84,
      "q": 85,
      "r": 86,
      "s": 87,
      "t": 88,
      "u": 89,
      "v": 90,
      "w": 91,
      "x": 92,
      "y": 93,
      "z": 94,
      "{": 95,
      "|": 96,
      "}": 97,
      "~": 98,
      "¡": 99,
      "¢": 100,
      "£": 101,
      "¤": 102,
      "¥": 103,
      "¦": 104,
      "§": 105,
      "¨": 106,
      "©": 107,
      "ª": 108,
      "«": 109,
      "¬": 110,
      "®": 111,
      "¯": 112,
      "°": 113,
      "±": 114,
      "²": 115,
      "³": 116,
      "´": 117,
      "µ": 118,
      "¶": 119,
      "·": 120,
      "¸": 121,
      "¹": 122,
      "º": 123,
      "»": 124,
      "¼": 125,
      "½": 126,
      "¾": 127,
      "¿": 128,
      "À": 129,
      "Á": 130,
      "Â": 131,
      "Ã": 132,
      "Ä": 133,
      "Å": 134,
      "Æ": 135,
      "Ç": 136,
      "È": 137,
      "É": 138,
      "Ê": 139,
      "Ë": 140,
      "Ì": 141,
      "Í": 142,
      "Î": 143,
      "Ï": 144,
      "Ð": 145,
      "Ñ": 146,
      "Ò": 147,
      "Ó": 148,
      "Ô": 149,
      "Õ": 150,
      "Ö": 151,
      "×": 152,
      "Ø": 153,
      "Ù": 154,
      "Ú": 155,
      "Û": 156,
      "Ü": 157,
      "Ý": 158,
      "Þ": 159,
      "ß": 160,
      "à": 161,
      "á": 162,
      "â": 163,
      "ã": 164,
      "ä": 165,
      "å": 166,
      "æ": 167,
      "ç": 168,
      "è": 169,
      "é": 170,
      "ê": 171,
      "ë": 172,
      "ì": 173,
      "í": 174,
      "î": 175,
      "ï": 176,
      "ð": 177,
      "ñ": 178,
      "ò": 179,
      "ó": 180,
      "ô": 181,
      "õ": 182,
      "ö": 183,
      "÷": 184,
      "ø": 185,
      "ù": 186,
      "ú": 187,
      "û": 188,
      "ü": 189,
      "ý": 190,
      "þ": 191,
      "ÿ": 192,
      "Ā": 193,
      "ā": 194,
      "Ă": 195,
      "ă": 196,
      "Ą": 197,
      "ą": 198,
      "Ć": 199,
      "ć": 200,
      "Ĉ": 201,
      "ĉ": 202,
      "Ċ": 203,
      "ċ": 204,
      "Č": 205,
      "č": 206,
      "Ď": 207,
      "ď": 208,
      "Đ": 209,
      "đ": 210,
      "Ē": 211,
      "ē": 212,
      "Ĕ": 213,
      "ĕ": 214,
      "Ė": 215,
      "ė": 216,
      "Ę": 217,
      "ę": 218,
      "Ě": 219,
      "ě": 220,
      "Ĝ": 221,
      "ĝ": 222,
      "Ğ": 223,
      "ğ": 224,
      "Ġ": 225,
      "ġ": 226,
      "Ģ": 227,
      "ģ": 228,
      "Ĥ": 229,
      "ĥ": 230,
      "Ħ": 231,
      "ħ": 232,
      "Ĩ": 233,
      "ĩ": 234,
      "Ī": 235,
      "ī": 236,
      "Ĭ": 237,
      "ĭ": 238,
      "Į": 239,
      "į": 240,
      "İ": 241,
      "ı": 242,
      "Ĳ": 243,
      "ĳ": 244,
      "Ĵ": 245,
      "ĵ": 246,
      "Ķ": 247,
      "ķ": 248,
      "ĸ": 249,
      "Ĺ": 250,
      "ĺ": 251,
      "Ļ": 252,
      "ļ": 253,
      "Ľ": 254,
      "ľ": 255,
      "Ŀ": 256,
      "ŀ": 257,
      "Ł": 258,
      "ł": 259,
      "Ń": 260,
      "à²": 261,
      "à³": 262,
      "Ġà²": 263,
      "à³į": 264,
      "à²¿": 265,
      "à²°": 266,
      "à³ģ": 267,
      "à²¾": 268,
      "à²¦": 269,
      "à³Ĩ": 270,
      "à²²": 271,
      "à²¨": 272,
      "à²¤": 273,
      "à²Ĺ": 274,
      "à²µ": 275,
      "à²Ĥ": 276,
      "à²ķ": 277,
      "à²¯": 278,
      "à²¸": 279,
      "à²³": 280,
      "à²¡": 281,
      "Ġà²®": 282,
      "à³ĩ": 283,
      "à²®": 284,
      "Ġà²¸": 285,
      "à²Ł": 286,
      "Ġà²ķ": 287,
      "Ġà²¨": 288,
      "Ġà²ħ": 289,
      "à³Ĥ": 290,
      "Ġà²¹": 291,
      "à²ª": 292,
      "Ġà²ª": 293,
      "Ġà²¬": 294,
      "à³Ĭ": 295,
      "à²Ĺà²³": 296,
      "à³Ģ": 297,
      "à²¬": 298,
      "à²£": 299,
      "à³ĭ": 300,
      "Ġà²µ": 301,
      "à²·": 302,
      "à³Ĩ.": 303,
      "âĢ": 304,
      "à²¹": 305,
      "à²ļ": 306,
      "Ġà²¤": 307,
      "à²¦à²°": 308,
      "à²ľ": 309,
      "Ġà²Ĩ": 310,
      "Ġà²ĩ": 311,
      "Ġà²İ": 312,
      "à²¶": 313,
      "à²§": 314,
      "à²µà²°": 315,
      "à²¿à²Ĥ": 316,
      "à³ģ.": 317,
      "à³įâĢ": 318,
      "Ġà²°": 319,
      "à²¦à²²": 320,
      "Ġà²¦": 321,
      "Ġà²ľ": 322,
      "Ġà²Ĺ": 323,
      "à³įâĢĮ": 324,
      "à²Ń": 325,
      "à²¥": 326,
      "à³Ī": 327,
      "à³Ĭà²Ĥ": 328,
      "Ġà²¶": 329,
      "à²µà²¨": 330,
      "Ġà²ļ": 331,
      "à²¯à²²": 332,
      "Ġà²Ī": 333,
      "Ġà²®à²¤": 334,
      "Ġà²Ĵ": 335,
      "à²¾à²Ĥ": 336,
      "Ġà²Ń": 337,
      "Ġà²ī": 338,
      "à²ķà²°": 339,
      "à³ģ,": 340,
      "à³Ĩà²Ĥ": 341,
      "Ġà²¯": 342,
      "à²ĸ": 343,
      "à²¤à²°": 344,
      "Ġà²ħà²µà²°": 345,
      "à²¯à²¨": 346,
      "à²Ĺà²³à²¨": 347,
      "à³ĥ": 348,
      "à²°à²¦": 349,
      "à³ģà²Ĥ": 350,
      "à²°à²¤": 351,
      "à²¯à²ķ": 352,
      "Ġà²ĩà²¦": 353,
      "à²¸à²²": 354,
      "à²¿.": 355,
      "à²¿,": 356,
      "Ġà²²": 357,
      "à²¤à²¦": 358,
      "à³Ĩ,": 359,
      "Ġà²¨à²¡": 360,
      "à²°à²µ": 361,
      "à²¨à²²": 362,
      "à²İ": 363,
      "Ġà²ħà²¨": 364,
      "à²°à²£": 365,
      "Ġà²¸à²®": 366,
      "à²°à²ķ": 367,
      "à²¯à²µ": 368,
      "à³Į": 369,
      "Ġà²ªà²°": 370,
      "Ġ1": 371,
      "à²°à²®": 372,
      "à²Ĺà²³à²²": 373,
      "Ġà²Ł": 374,
      "Ġ2": 375,
      "à²¯à²°": 376,
      "à²«": 377,
      "à²¡à²²": 378,
      "à³ķ": 379,
      "à²²à²µ": 380,
      "..": 381,
      "Ġà²¡": 382,
      "Ġà²¸à²°": 383,
      "Ġà²Ĩà²Ĺ": 384,
      "Ġà²®à²¨": 385,
      "Ġà²ĩà²²": 386,
      "à²¤à²¨": 387,
      "Ġà²«": 388,
      "Ġà²Ĩà²°": 389,
      "à²¸à²°": 390,
      "à²¦à²¨": 391,
      "ĠâĢ": 392,
      "Ġà²µà²°": 393,
      "à²¬à²°": 394,
      "à³į,": 395,
      "à²¯à²¦": 396,
      "Ġà²ľà²¨": 397,
      "Ġà²ı": 398,
      "à²°à²²": 399,
      "à²Ĺà²²": 400,
      "à²¤à²µ": 401,
      "Ġà²İà²²": 402,
      "Ġà²ħà²§": 403,
      "Ġà²¬à²³": 404,
      "à²²à²ķ": 405,
      "Ġ(": 406,
      "Ġà²ħà²µ": 407,
      "âĢĻ": 408,
      "Ġà²ĸ": 409,
      "Ġà²ķà²°": 410,
      "Ġà²¬à²°": 411,
      "à²ľà²¨": 412,
      "à²Ĺà²°": 413,
      "Ġà²ħà²¦": 414,
      "à²Łà²°": 415,
      "à²²à²¦": 416,
      "Ġà²ħà²²": 417,
      "Ġà²Ĩà²¦à²°": 418,
      "à²®à²¨": 419,
      "à²¬à²¹": 420,
      "à²°à²¸": 421,
      "Ġà²¬à²Ĺ": 422,
      "Ġà²¨à²®": 423,
      "à²ªà²°": 424,
      "Ġà²ħà²Ń": 425,
      "Ġà²®à²¹": 426,
      "à³Ĩà³Ĥ": 427,
      "Ġà²ªà²¡": 428,
      "à²µà²£": 429,
      "ï¿": 430,
      "ï¿½": 431,
      "à²ł": 432,
      "à²ĺ": 433,
      "à²¯à²®": 434,
      "à²·à²£": 435,
      "Ġà²¨à²¨": 436,
      "à³į.": 437,
      "Ġà²īà²¤": 438,
      "an": 439,
      "Ġà²¤à²®": 440,
      "Ġà²§": 441,
      "à²ħ": 442,
      "00": 443,
      "à²Ĺà²¦": 444,
      "à²Łà²ķ": 445,
      "ad": 446,
      "Ġà²ħà²°": 447,
      "à²³à²Ĺ": 448,
      "à²¯à²¤": 449,
      "à²Łà²¨": 450,
      "Ġà²¸à²¹": 451,
      "ĠâĢĺ": 452,
      "à²ĩ": 453,
      "Ġà²ĩà²¨": 454,
      "Ġà²İà²¨": 455,
      "Ġà²ķà²²": 456,
      "à²°à²¡": 457,
      "Ġ|": 458,
      "à²¨à²¦": 459,
      "Ġà²ķà²¨": 460,
      "à³ĩà²Ĥ": 461,
      "à²ªà²¡": 462,
      "à²Ĺà²¤": 463,
      "Ġà²ĩà²°": 464,
      "Ġà²¤à²¨": 465,
      "à³¦": 466,
      "à²İà²¸": 467,
      "à²¨à²¡": 468,
      "à²°à²°": 469,
      "à²Ĩ": 470,
      "Ġà²īà²¦": 471,
      "à²µà²²": 472,
      "à²³à²²": 473,
      "à²ªà²¨": 474,
      "Ġà²ķà²¡": 475,
      "à³įâĢį": 476,
      "Ġà²ķà²³": 477,
      "à²°à²¦à²²": 478,
      "à²²à²¸": 479,
      "ï¿½ï¿½": 480,
      "Ġà²ħà²¤": 481,
      "Ġà²ĺ": 482,
      "à²¨à²µ": 483,
      "à²¦à²ķ": 484,
      "re": 485,
      "Ġà²Ĩà²¦": 486,
      "01": 487,
      "à²²à²°": 488,
      "à²¯à²¦à²²": 489,
      "à³Ĩà³ķ": 490,
      "à²ªà²¤": 491,
      "à²µà²¤": 492,
      "à²¥à²µ": 493,
      "à²Ńà²µ": 494,
      "Ġà³": 495,
      "à²ķà²°à²£": 496,
      "à²ķà²³": 497,
      "à²°à²¨": 498,
      "Ġà²ªà²ķ": 499,
      "Ġà²Īà²Ĺ": 500,
      "Ġà²¬à²¹": 501,
      "Ġà²ĵ": 502,
      "à²ŀ": 503,
      "Ġà²Ĩà²¯": 504,
      "Ġà²ªà²¤": 505,
      "Ġà²İà²°à²¡": 506,
      "à²¤à²®": 507,
      "Ġ3": 508,
      "à²ķà²²": 509,
      "ĠK": 510,
      "à²°à²¹": 511,
      "à²¸à²¬": 512,
      "à²°à²¶": 513,
      "Ġà²¸à²²": 514,
      "à²Ĺà²¡": 515,
      "à²¶à²¨": 516,
      "Ġà²Ĩà²¸": 517,
      "à²¡à²°": 518,
      "à²¦à²µ": 519,
      "à²®à²¦": 520,
      "Ġà²Ĳ": 521,
      "Ġà²¸à²¦": 522,
      "ar": 523,
      "âĢ¦": 524,
      "in": 525,
      "à²¡à²¬": 526,
      "à²¤à²¹": 527,
      "Ġà²ħà²¥à²µ": 528,
      "Ġà²īà²ª": 529,
      "Ġà²ħà²ª": 530,
      "à²°à²Ĺà²³": 531,
      "Ġà²ħà²®": 532,
      "à²®à²ķ": 533,
      "at": 534,
      "à²·à²¦": 535,
      "Ġà²ĩà²¦à²°": 536,
      "à²¨à²Ĺà²³": 537,
      "à²Ī": 538,
      "Ġà²¹à²£": 539,
      "à²¸à²¦": 540,
      "Ġà²ħà²¦à²°": 541,
      "à²¿à³ķ": 542,
      "à³įâĢĭ": 543,
      "à²¬à²²": 544,
      "à²¯à²µà²°": 545,
      "à²°à²³": 546,
      "Ġà²¨à²²": 547,
      "à²¤à²ķ": 548,
      "Ġà²ĩà²¤": 549,
      "à²Ĺà²µ": 550,
      "à²ļà²¨": 551,
      "à²ļà²°": 552,
      "Ġ-": 553,
      "Ġm": 554,
      "à²§à²¨": 555,
      "à²¡à²¦": 556,
      "à²¶à²¦": 557,
      "à²¯à²Ĺà²³": 558,
      "à²ªà²Ł": 559,
      "ĠR": 560,
      "Ġà²®à²ķ": 561,
      "Ġà²ľà²¨à²°": 562,
      "ann": 563,
      "à²¨à²¨": 564,
      "à²¦à²µà²°": 565,
      "à²¶à²ķ": 566,
      "ada": 567,
      "à²ľà²ķ": 568,
      "Ġ5": 569,
      "Ġà²Ĩà²ķ": 570,
      "à²²à²¨": 571,
      "à²¥à²³": 572,
      "à²¯à²¸": 573,
      "à²Łà²¦": 574,
      "Ġà²Ĺà²³": 575,
      "à²¾.": 576,
      "...": 577,
      "à²®à²°": 578,
      "Ġ201": 579,
      "annada": 580,
      "à²ķà²µ": 581,
      "ĠN": 582,
      "Ġà²¸à²ļ": 583,
      "Ġà²ıà²¨": 584,
      "Ġà²ķà²Ł": 585,
      "à²µà²¦": 586,
      "à²·à²Ĺà²³": 587,
      "Ġ'": 588,
      "à²¤à²²": 589,
      "Ġà²İà²¸": 590,
      "à²®à²Ĺ": 591,
      "Ġà²¬à²¦à²²": 592,
      "Ġà²¤à²²": 593,
      "Ġ4": 594,
      "à²ĸà²²": 595,
      "à²ķà²Ł": 596,
      "Ġà²²à²ķ": 597,
      "à²ķà²¨": 598,
      "à²°à²¬": 599,
      "ia": 600,
      "Ġà²¹à²²à²µ": 601,
      "Ġà²İà²¦": 602,
      "à²Ĳ": 603,
      "Ġà²¹à²¤": 604,
      "à²¯à²µà²¨": 605,
      "er": 606,
      "Ġà²ªà²Ł": 607,
      "ore": 608,
      "on": 609,
      "à²£à²¦": 610,
      "Ġà²¹à²°": 611,
      "Ġà²ħà²¸": 612,
      "Ġ:": 613,
      "ew": 614,
      "Ġà²®à²°": 615,
      "ĠKannada": 616,
      "Ġà²°à²¸": 617,
      "à²¡à²Ĺ": 618,
      "Ġà²ħà²ķ": 619,
      "à²¨à²ķ": 620,
      "Ġà²Ĩà²¤": 621,
      "à²µà²µà²°": 622,
      "Ġà²īà²³": 623,
      "Ġà²ĩà²µà²°": 624,
      "Ġà²ķà²£": 625,
      "Ġ\"": 626,
      "Ġà²®à²§": 627,
      "§à³": 628,
      "à²°à²ķà²°à²£": 629,
      "à²µà²³": 630,
      "à²¾,": 631,
      "à²°à²µà²¨": 632,
      "ead": 633,
      "âĢĺ": 634,
      "à²°à²ª": 635,
      "à²Łà²µ": 636,
      "ews": 637,
      "à²¯à²ķà²°": 638,
      "Ġà²ħà²¡": 639,
      "Ġ,": 640,
      "à²§à²°": 641,
      "Ġmore": 642,
      "à²ľà²°": 643,
      "à²°à²¯": 644,
      "à²¡à²³": 645,
      "à²·à²¨": 646,
      "à²°à²§": 647,
      "Ġà²¬à²³à²¸": 648,
      "Ġà²¤à²ª": 649,
      "Ġà²¸à²®à²¸": 650,
      "Ġà²ªà²¦": 651,
      "à²¸à²µ": 652,
      "Ġà²¬à²¦": 653,
      "Ġà²°à²ķ": 654,
      "à²¸à²Ń": 655,
      "à²¡à²¨": 656,
      "al": 657,
      "Ġ6": 658,
      "Ġà²Ĩà²¨": 659,
      "Ġà²ħà²¦à²¨": 660,
      "à²¸à²¨": 661,
      "à²Ĺà²¦à²²": 662,
      "Ġà²ħà²µà²°à²¨": 663,
      "à²¯à²µà²¸": 664,
      "Ġà²¨à²Ł": 665,
      "Ġà²ļà²°": 666,
      "Ġà²ħà²µà²¨": 667,
      "à²ªà²¦": 668,
      "ĠRead": 669,
      "Ġà²Ĵà²³": 670,
      "à²¹à²²": 671,
      "à²Ńà²¦à²²": 672,
      "à²£à²µ": 673,
      "Ġà²¨à²Ĺà²°": 674,
      "à²°à²ľ": 675,
      "à²§à²µ": 676,
      "à²°à²Ĺ": 677,
      "à²µà²¹": 678,
      "à²ªà²ķ": 679,
      "Ġà²ıà²°": 680,
      "à²Ĩà²°": 681,
      "ĠNews": 682,
      "Ġà²¨à²¨à²Ĺ": 683,
      "Ġà²®à²Ĺ": 684,
      "à²Ĥ.": 685,
      "à²¸à²ķ": 686,
      "Ġà²ıà²ķ": 687,
      "à²®à²¤": 688,
      "à²¨à²¦à²²": 689,
      "Ġà²®à²³": 690,
      "Ġà²İà²ļ": 691,
      "en": 692,
      "Ġà²®à²¦": 693,
      "Ġà²ĺà²Łà²¨": 694,
      "Ġà²§à²°": 695,
      "Ġà²¸à²¤": 696,
      "à²£à²¦à²²": 697,
      "Ġà²ĩà²µ": 698,
      "à³ģ:": 699,
      "Ġà²¸à²Ń": 700,
      "Ġà²µà²¸": 701,
      "Ġà²®à²²": 702,
      "à³ĸ": 703,
      "à²µà²ķ": 704,
      "Ġà²Ĭ": 705,
      "à³Ĥ.": 706,
      "à³Ĩà³ĸ": 707,
      "à³ĨâĢĻ": 708,
      "Ġà²¸à²°à²ķ": 709,
      "à²®à²µ": 710,
      "à²¬à²³": 711,
      "Ġà²¸à²¦à²¸": 712,
      "Ġà²Ĺà²®à²¨": 713,
      "Ġà²¬à²¸": 714,
      "à²µà²¸": 715,
      "Ġ19": 716,
      "Ġà²¤à²°": 717,
      "à²Łà²²": 718,
      "Ġà²¨à²Ĺ": 719,
      "Ġ10": 720,
      "Ġà²Ĺà²£": 721,
      "à²³à²¬": 722,
      "à³Ĥ,": 723,
      "Ġà²ħà²µà²ķ": 724,
      "st": 725,
      "à²¯à²ª": 726,
      "Ġà²Ĵà²³à²Ĺ": 727,
      "à²ķà²¦": 728,
      "à²¨à²ª": 729,
      "à²®à²¯": 730,
      "Ġà²¹à²³": 731,
      "Ġ7": 732,
      "Ġà²ĩà²¦à²¨": 733,
      "à²¨à²°": 734,
      "âĢĮ": 735,
      "à²¶à²¦à²²": 736,
      "à²¡à²µ": 737,
      "à³Ĩà³Ĥà³ķ": 738,
      "à²ķà²¤": 739,
      "à³įâĢĮ,": 740,
      "Ġà²ħà²¦à²ķ": 741,
      "à²Ĵ": 742,
      "à²°à²Ń": 743,
      "à²Łà²Ĺ": 744,
      "Ġà²Ĵà²¬": 745,
      "à³Ĩà³Ĥà²Ĥ": 746,
      "dia": 747,
      "à²¶à²Ĺà²³": 748,
      "à²¦à²Ĺ": 749,
      "à²·à²ķ": 750,
      "Ġà²ħà²·": 751,
      "à²¨à²µà²¨": 752,
      "à²¦à²¦": 753,
      "Ġà²Ĵà²¤": 754,
      "à²ĥ": 755,
      "Ġà²Ĩà²«": 756,
      "à²¶à²µ": 757,
      "à²¿:": 758,
      "or": 759,
      "Ġà²ĵà²¦": 760,
      "à²¹à²°": 761,
      "à²·à²°": 762,
      "ĠS": 763,
      "Ġà²ĩà²¤à²°": 764,
      "Ġà²ĸà²°": 765,
      "Ġà²ĩà²¦à²ķ": 766,
      "à²°à²¤à²¦": 767,
      "Ġà²Ĵà²Ł": 768,
      "Ġ8": 769,
      "âĢĿ": 770,
      "Ġà²¬à²²": 771,
      "à²²à²¯": 772,
      "à³ĩ.": 773,
      "Ġà²Ĩà²¹": 774,
      "à²¸à²¬à²¹": 775,
      "Ġà²ĩà²·": 776,
      "Ġà²¦à²°": 777,
      "à²³à²µ": 778,
      "Ġà²ħà²µà²³": 779,
      "Ġà²ħà²Ĺà²¤": 780,
      "Ġà²®à²Ł": 781,
      "Ġà²µà²°à²¦": 782,
      "ak": 783,
      "Ġt": 784,
      "à²®à²²": 785,
      "à²ķà²·": 786,
      "ĠC": 787,
      "ĠI": 788,
      "à²Ĺà²£": 789,
      "it": 790,
      "à²°à²¯à²¤": 791,
      "Ġà²Ĵà²ª": 792,
      "à²·à²¤": 793,
      "ic": 794,
      "Ġà²®à²¨à²¸": 795,
      "om": 796,
      "à²ī": 797,
      "à²¢": 798,
      "à²Ľ": 799,
      "Ġ200": 800,
      "à²·à²ķà²°": 801,
      "à²İà²²": 802,
      "201": 803,
      "ï¿½ï¿½ï¿½ï¿½": 804,
      "à²µà²µ": 805,
      "Ġà²¬à²³à²ķ": 806,
      "à²Ĺà²¬": 807,
      "à²²à²Ń": 808,
      "à²¹à²¨": 809,
      "ĠB": 810,
      "à²¨à²¤": 811,
      "Ġà²İà²·": 812,
      "Ġà²¤à²¯": 813,
      "à²¹à²¤": 814,
      "Ġà²ķà²¥": 815,
      "Ġà²ĩà²¬": 816,
      "Ġà²¶à²ķ": 817,
      "Ġà²Ĩà²§": 818,
      "à²³à²ķ": 819,
      "à²µà²ľà²¨": 820,
      "Ġà²µà²¹": 821,
      "Ġ9": 822,
      "Ġà²Ĩà²¶": 823,
      "ĠâĢľ": 824,
      "ĠD": 825,
      "à²¦à²³": 826,
      "à²°à²¦à²°": 827,
      "un": 828,
      "à³Ĭà³ķ": 829,
      "Ġà²¬à²¡": 830,
      "à³įâĢĮ.": 831,
      "à²¦à²°à²²": 832,
      "Ġs": 833,
      "à²°à²ļ": 834,
      "Ġà²ľà²¤": 835,
      "à²Łà²¦à²²": 836,
      "Ġà²¯à²¶": 837,
      "Ġ.": 838,
      "à²°à²£à²µ": 839,
      "Ġc": 840,
      "à²¤à²ªà²¡": 841,
      "ĠM": 842,
      "à³Ģà²Ĥ": 843,
      "à²Ĺà²¨": 844,
      "Ġà²¬à²¹à²³": 845,
      "à²¬à²¦": 846,
      "le": 847,
      "Ġà²ķà²ļ": 848,
      "Ġà²ł": 849,
      "à²°à²·": 850,
      "ĠA": 851,
      "à²·à²µ": 852,
      "à²³à²¦": 853,
      "Ġà²¨à²®à²Ĺ": 854,
      "à³ģâĢĻ": 855,
      "à²¯à²Ĺà²³à²¨": 856,
      "à²ļà²°à²£": 857,
      "à²¸à²Ĺ": 858,
      "),": 859,
      "à²¹à²³": 860,
      "ra": 861,
      "Ġà³§à³": 862,
      "à²²à²µà²°": 863,
      "Ġà²¤à²¡": 864,
      "à²¿-": 865,
      "à²¨à²Ĺ": 866,
      "ĠP": 867,
      "Ġà²¹à²¸": 868,
      "Ġà²ķà²¤": 869,
      "à²¯à²¬": 870,
      "à²¨à²®": 871,
      "Ġ`": 872,
      "à²°à²Ĺà²³à²¨": 873,
      "à²¡à²¬à²¹": 874,
      "à³Įà²Ĥ": 875,
      "Ġà²İà²¤": 876,
      "Ġ15": 877,
      "Ġà²¨à²µ": 878,
      "à³¨": 879,
      "es": 880,
      "à²°à²µà²°": 881,
      "à²¥à²®": 882,
      "à³§à³": 883,
      "Ġ12": 884,
      "à²ľà²µ": 885,
      "à³Ĩ?": 886,
      "à²¨à²¸à²Ń": 887,
      "nat": 888,
      "à²°à²¶à²¸": 889,
      "à³į-": 890,
      "à²ľà²¯": 891,
      "ĠâĢĵ": 892,
      "à³įâĢĻ": 893,
      "Ġà²¥": 894,
      "Ġà²¸à²£": 895,
      "à²£à²ķ": 896,
      "Ġà²¦à²ķ": 897,
      "Ġà²ĩà²³": 898,
      "à²®à²£": 899,
      "à²²à²¯à²¦": 900,
      "à²¹à²¦": 901,
      "aka": 902,
      "Ġà²ĩà²¡": 903,
      "à²²à²¦à²²": 904,
      "à³ģ?": 905,
      "à²¿âĢĻ": 906,
      "Ġà³¨": 907,
      "à²£à²Ĺ": 908,
      "Ġà²Ĵà²¦à²Ĺ": 909,
      "à²¿)": 910,
      "âĢĵ": 911,
      "Ġà²ĩà²Ł": 912,
      "ĠIn": 913,
      "Ġà²¬à²£": 914,
      "Ġà²ķà²ª": 915,
      "Ġà²Ĩà²¡à²³": 916,
      "Ġp": 917,
      "à²¤à²¦à²²": 918,
      "à³Ĩ:": 919,
      "arnat": 920,
      "il": 921,
      "Ġà²ķà²·": 922,
      "à²ĸà²°": 923,
      "Ġà²¯à²¶à²¸": 924,
      "à²²à²¤": 925,
      "à²¨à²Ĺà²³à²²": 926,
      "à²®à²¸": 927,
      "Ġà²¸à²µ": 928,
      "Ġ20": 929,
      "arnataka": 930,
      "à²¸à²ķà²°": 931,
      "Ġà²¤à²ķ": 932,
      "Ġà²²à²Ń": 933,
      "Ġà²Ĩà²²": 934,
      "as": 935,
      "à²Łà²ķà²¦": 936,
      "Ġà²Ĺà²°": 937,
      "à³ģ-": 938,
      "ion": 939,
      "à²°à²£à²ķ": 940,
      "Ġà²¸à²¨": 941,
      "à²¨à²¸": 942,
      "Ġà²°à²µ": 943,
      "Ġà²¨à²Ĺà²°à²¦": 944,
      "à²ĺà²Łà²¨": 945,
      "à²ĩà²¦": 946,
      "Ġ2018": 947,
      "Ġà²ħà²¦à²°à²²": 948,
      "à²Ĺà²ķ": 949,
      "à²Ĺà²Ĺà²³": 950,
      "à²µà²¯": 951,
      "à²¡à²ķ": 952,
      "Ġà²Ĩà²¡": 953,
      "Ġà²¹à²¬": 954,
      "à²Ĺà²Ł": 955,
      "à²°à²Ĺà²³à²²": 956,
      "Ġà²Ĩà²¤à²¨": 957,
      "à²¶à²µà²¨": 958,
      "Ġb": 959,
      "à²İà²¨": 960,
      "à³ĩ,": 961,
      "à²¤à²Ĺ": 962,
      "am": 963,
      "Ġà²¨à²°": 964,
      "ĠT": 965,
      "Ġà²ħà²µà²§": 966,
      "is": 967,
      "à²§à²¤": 968,
      "à²ªà²·": 969,
      "à²¯à²£": 970,
      "à³©": 971,
      "ĠO": 972,
      "à²¯à²Ĺ": 973,
      "Ġâ": 974,
      "ur": 975,
      "ol": 976,
      "Ġà²īà²¡": 977,
      "Ġà²ĩà²°à²²": 978,
      "ed": 979,
      "à²¥à²°": 980,
      "à²Ńà²Łà²¨": 981,
      "Ġ11": 982,
      "à³«": 983,
      "à²·à²¯": 984,
      "000": 985,
      "Ġà²®à²£": 986,
      "à³į)": 987,
      "Ġà²Ĩà²Ł": 988,
      "and": 989,
      "Ġà²Ĩà²ª": 990,
      "à²°à²ķà²Ł": 991,
      "Ġà²ħà²Ĺ": 992,
      "à²£à²¨": 993,
      "Ġà²ħà²ªà²°": 994,
      "à²²à²µà²¨": 995,
      "Ġà²®à²¹à²¤": 996,
      "Ġà²¨à²¦": 997,
      "Ġd": 998,
      "Ġà²®à²¤à²¦": 999,
      "Ġà²ķà²µ": 1000,
      "Ġà²°à²²": 1001,
      "à²°à²¬à²¹": 1002,
      "he": 1003,
      "Ġà²¹à²ķ": 1004,
      "à²®à²Ł": 1005,
      "à³ĩ?": 1006,
      "Ġà²İà²°à²¡à²¨": 1007,
      "Ġà²®à²¨à²µ": 1008,
      "à²®à²Ĺà²³": 1009,
      "âĢį": 1010,
      "Ġà²«à²²": 1011,
      "Ġà²ľà²¯": 1012,
      "Ġà²°à²¨": 1013,
      "ĠIndia": 1014,
      "Ġ18": 1015,
      "Ġf": 1016,
      "Ġà²Ķ": 1017,
      "à³į'": 1018,
      "Ġà²ľà²Ĺà²¤": 1019,
      "Ġà²īà²²": 1020,
      "Ġà²¹à²ļ": 1021,
      "ag": 1022,
      "ĠKarnataka": 1023,
      "19": 1024,
      "Ġà²ľà²²": 1025,
      "ne": 1026,
      "ĠâĤ": 1027,
      "âĢĭ": 1028,
      "à³ª": 1029,
      "à²³à²¬à²¹": 1030,
      "à²¦à²·": 1031,
      "ent": 1032,
      "Ġà²ľà²®": 1033,
      "à²ªà²²": 1034,
      "à¤": 1035,
      "Ġà²¸à²®à²¯à²¦à²²": 1036,
      "Ġà²Ńà²ķ": 1037,
      "Ġà²Ĳà²¦": 1038,
      "à²¾?": 1039,
      "à²Ĺà²µà²¹": 1040,
      "Ġk": 1041,
      "à²ªà²¸": 1042,
      "Ġà²Ľ": 1043,
      "ĠF": 1044,
      "Ġà²Ĭà²°": 1045,
      "Ġà²Ĵà²¡": 1046,
      "Ġà²¸à²²à²¹": 1047,
      "Ġà²¸à²ķ": 1048,
      "ing": 1049,
      "à²¯à²¦à²°": 1050,
      "à²¸à²¤": 1051,
      "Ġà²µà²¯à²¸": 1052,
      "Ġà²ĵà²¡": 1053,
      "Ġà²°à²ļ": 1054,
      "30": 1055,
      "50": 1056,
      "à³Īà²Ĥ": 1057,
      "à²ªà²¦à²²": 1058,
      "Ġà²ķà²®": 1059,
      "à²ĩà²¨": 1060,
      "ĠâĤ¹": 1061,
      "à²ªà²£": 1062,
      "Ġà²¸à²®à²¯": 1063,
      "Ġà²¸à²®à²°": 1064,
      "à²¤à²°à²¦": 1065,
      "à²¹à²ķà²°": 1066,
      "à³ģ...": 1067,
      "à³Ĩ...": 1068,
      "Ġà²ľà²¨à²ª": 1069,
      "à²¨à²Ĺà²°": 1070,
      "Ġà²¬à²°à²²": 1071,
      "à²µà²µà²¨": 1072,
      "à³¯": 1073,
      "ĠH": 1074,
      "Ġa": 1075,
      "Ġà²¹à²²": 1076,
      "à²°à²Ł": 1077,
      "à²¨à²·": 1078,
      "à²¬à²¨": 1079,
      "à²µà²ļ": 1080,
      "à²§à²¦": 1081,
      "20": 1082,
      "Ġà²Ĩà²Łà²Ĺ": 1083,
      "à²ķà²¦à²²": 1084,
      "à³¦à³¦": 1085,
      "Ġà²Ĺà²¡": 1086,
      "à³Ĩ-": 1087,
      "à²¡à²Ĺà²³": 1088,
      "à²¹à²¸": 1089,
      "à³ĭà²Ĥ": 1090,
      "à²µà²¦à²²": 1091,
      "à³§": 1092,
      "ay": 1093,
      "à²¹à²ķ": 1094,
      "à²¤à²°à²µ": 1095,
      "Ġà²¤à²°à²¬": 1096,
      "Ġin": 1097,
      "Ġà²īà²ļ": 1098,
      "à²Ĺà²µà²¨": 1099,
      "Ġà²·": 1100,
      "Ġà²Ĩà²Ĺà²²": 1101,
      "Ġà²īà²Ĺ": 1102,
      "Ġà²Ĩà²®": 1103,
      "Ġà²ħà²¶": 1104,
      "el": 1105,
      "à²°à²®à²¦à²²": 1106,
      "Ġà²ħà²ľ": 1107,
      "Ġà²®à²¸": 1108,
      "à²Ĩà²¦à²°": 1109,
      "Ġ30": 1110,
      "10": 1111,
      "à²¨à²µà²°": 1112,
      "Ġà²¸à²¹à²ķ": 1113,
      "à³¬": 1114,
      "Ġà²ħà²¬": 1115,
      "Ġà²ħà²³à²µ": 1116,
      "Ġà²ļà²Ł": 1117,
      "à²ı": 1118,
      "à²²à²Ĺà²³": 1119,
      "ou": 1120,
      "india": 1121,
      "et": 1122,
      "ct": 1123,
      "à²²à²²": 1124,
      "Ġ14": 1125,
      "à²¹à²°à²£": 1126,
      "Ġw": 1127,
      "Ġà²ªà²¦à²µ": 1128,
      "Ġà²ħà²£": 1129,
      "à²Ĺà²®": 1130,
      "ĠG": 1131,
      "à²¯à²¯à²¨": 1132,
      "à²ªà²³": 1133,
      "Ġà²ĩà²¦à²°à²²": 1134,
      "Ġà²ħà²³à²µà²¡": 1135,
      "Ġà²Ńà²¦": 1136,
      "à²°à²¤à²¦à²²": 1137,
      "à²¿'": 1138,
      "à³®": 1139,
      "à²Ĺà²¬à²¹": 1140,
      "Ġà²īà²ªà²¯": 1141,
      "à³ģ)": 1142,
      "Ġ25": 1143,
      "à²µà²Ł": 1144,
      "Ġà²Ĵà²®": 1145,
      "à³Ń": 1146,
      "Ġà²īà²¸": 1147,
      "à²®à²¦à²²": 1148,
      "Ġ16": 1149,
      "à²¨à²µà²¦": 1150,
      "à²İà²«": 1151,
      "Ġà²ľà²°": 1152,
      "à²ļà²²": 1153,
      "Ġà²¶à²°": 1154,
      "à²µà²®": 1155,
      "à²¨à²¯": 1156,
      "à²£à²Ĺà²³": 1157,
      "à²¨à²Ĺà²³à²¨": 1158,
      "Ġà²¹à²¨": 1159,
      "à²°à²®à²¦": 1160,
      "Ġà²¬à²¯à²¸": 1161,
      "à³Ĩ!": 1162,
      "Ġà²¶à²¨": 1163,
      "à²³à²µà²£": 1164,
      "Ġ0": 1165,
      "à²µà²¨à²¦à²²": 1166,
      "Ġà²Ńà²µ": 1167,
      "Ġà²Ńà²°": 1168,
      "à²§à²ķ": 1169,
      "Ġà²°à²®": 1170,
      "Ġà²¦à²²": 1171,
      "com": 1172,
      "à²µà²°à²¨": 1173,
      "ha": 1174,
      "à²¦à²µà²¨": 1175,
      "od": 1176,
      "Ġà²Ĩà²ļà²°": 1177,
      "à²¸à²®": 1178,
      "Ġà²Ńà²¯": 1179,
      "Ġà²İà²ķ": 1180,
      "à²³à²¨": 1181,
      "à³ĭ,": 1182,
      "à²µà²¹à²£": 1183,
      "Ġà²¤à²³": 1184,
      "Ġà²ķà²¸": 1185,
      "ĠOne": 1186,
      "Ġà²ħà²ļ": 1187,
      "à²µà²°à²£": 1188,
      "à²ªà²µ": 1189,
      "à²°à²£à²¦": 1190,
      "à³ģ!": 1191,
      "à³Ĩ)": 1192,
      "à²²à²ķà²°": 1193,
      "hi": 1194,
      "à²°à²µà²¸": 1195,
      "à²®à²¹": 1196,
      "Ġà²¬à²Ł": 1197,
      "ĠOneindia": 1198,
      "à²¶à²ķà²°": 1199,
      "à²ľà²ª": 1200,
      "ot": 1201,
      "Ġ13": 1202,
      "Ġà²Ĩà²¸à²ķ": 1203,
      "Ġà²īà²°": 1204,
      "Ġ50": 1205,
      "à²Ĺà²³à²µ": 1206,
      "à²¦à²¯": 1207,
      "Ġà²¬à²ľ": 1208,
      "à²¤à²¡": 1209,
      "em": 1210,
      "Ġà²Ĩà²µ": 1211,
      "Ġà²®à²°à²³": 1212,
      "Ġà²°à²ļà²¨": 1213,
      "à³Ĩ..": 1214,
      "à³Ĩ'": 1215,
      "à²¯à²µà²¹": 1216,
      "Ġà²¯à²¡": 1217,
      "à²²à²¯à²¦à²²": 1218,
      "Ġà²ļà²²": 1219,
      "Ġà²ľà²¨à²¤": 1220,
      "Ġà²®à²ł": 1221,
      "unia": 1222,
      "Ġà²ķà²¨à²¸": 1223,
      "à²¤à²ª": 1224,
      "à²¤à²µà²¨": 1225,
      "à²ķà²¸à²Ń": 1226,
      "à²¶à²Ĺà²³à²¨": 1227,
      "à²Łà²Ĺà²³": 1228,
      "ĠDunia": 1229,
      "ov": 1230,
      "à²ļà²ķ": 1231,
      "Ġà²ħà²³": 1232,
      "Ġà²¨à²ķ": 1233,
      "à²µà²¨à²¦": 1234,
      "à²¶à²Ĺà²³à²²": 1235,
      "Ġà²Ńà²°à²µà²¸": 1236,
      "id": 1237,
      "Ġà²Ĩà²Ĺà²®": 1238,
      "ĠâĢĻ": 1239,
      "à²¿...": 1240,
      "à²°à²¥à²®": 1241,
      "à³į:": 1242,
      "Ġà²Ĩà²ķà²°": 1243,
      "Ġà²¯à²¤": 1244,
      "Ġà²İà²£": 1245,
      "Ġà²°à²µà²°": 1246,
      "à²°à²ķà²°": 1247,
      "à²ļà²¯": 1248,
      "Ġà²ľà²µ": 1249,
      "Ġ17": 1250,
      "Ġà²§à²¨": 1251,
      "à²Łà²µà²¨": 1252,
      "à²ĺà²¦": 1253,
      "Ġà²ħà²¹": 1254,
      "à²¹à²£": 1255,
      "à²Ńà²¦": 1256,
      "Ġà²ªà²°à²µ": 1257,
      "à²Łà²£": 1258,
      "à²¯à²¡": 1259,
      "à²°à²µà²²": 1260,
      "Ġà²ªà²¶": 1261,
      "à²¯à²¬à²¹": 1262,
      "Ġà²ĩà²¸": 1263,
      "Ġà²°à²·": 1264,
      "of": 1265,
      "um": 1266,
      "à²¯à²°à²¨": 1267,
      "à²Ŀ": 1268,
      "Ġà²Ĩà²µà²°": 1269,
      "Ġà²µà²ķ": 1270,
      "à²¡à²¤": 1271,
      "à²¯à²®à²Ĺà²³": 1272,
      "Ġà²ħà²°à²£": 1273,
      "Ġà²®à²¡": 1274,
      "à²·à²¦à²²": 1275,
      "à²ľà²²": 1276,
      "ĠÐ": 1277,
      "à²ľà²¦": 1278,
      "ch": 1279,
      "à²¤à²ªà²Ł": 1280,
      "à²¨à²¡à²¦": 1281,
      "à²°à²®à²µ": 1282,
      "2018": 1283,
      "à²ĸà²µ": 1284,
      "18": 1285,
      "Ġà²Ńà²Ł": 1286,
      "à³ģ..": 1287,
      "Ġà²īà²¨": 1288,
      "à³Ĩ.[": 1289,
      "Ġ24": 1290,
      "Ġà²Ĺà²³à²¨": 1291,
      "à²®à²¹à²¤": 1292,
      "Ġà²ªà²°à²®": 1293,
      "à²²à²¬": 1294,
      "Ġà²ıà²³": 1295,
      "12": 1296,
      "Ġà²ļà²³": 1297,
      "ĠL": 1298,
      "Ġ[": 1299,
      "à²£à²¸": 1300,
      "à²ķà²¡": 1301,
      "à¥": 1302,
      "Ġà²ľà²¨à²¸": 1303,
      "Ġà²¤à²¤": 1304,
      "Ġà²¹à²£à²ķ": 1305,
      "à²°à²µà²£": 1306,
      "à²ħà²¨": 1307,
      "à³Ģ.": 1308,
      "Ġà²¨à²·": 1309,
      "à²Łà²®": 1310,
      "à²®à²ļ": 1311,
      "à²µà²ķà²°": 1312,
      "11": 1313,
      "à²¯à²ķà²¤": 1314,
      "Ġà²İà²³": 1315,
      "à³įâĢĮâĢĮ": 1316,
      "Ġà²¸à²°à²£": 1317,
      "à²ľà²¸": 1318,
      "Ġà²ħà²µà²¶": 1319,
      "à²µà²·": 1320,
      "ĠE": 1321,
      "!!": 1322,
      "ĠV": 1323,
      "à²¹à²µ": 1324,
      "à²¯à²Ĺà²³à²²": 1325,
      "à²Ĺà²¸": 1326,
      "Ġà²®à²Ĺà²³": 1327,
      "à²¤à²°à²°": 1328,
      "Ġà²¨à²Ĺà²°à²¦à²²": 1329,
      "Ġà²ķà²¬": 1330,
      "à²ķà²ķ": 1331,
      "Ġ/": 1332,
      "Ġn": 1333,
      "à²¤à²°à²£": 1334,
      "Ġà²¹à²®": 1335,
      "ig": 1336,
      "à²¥à²¨": 1337,
      "à²ķà²ª": 1338,
      "à²¸à²¦à²²": 1339,
      "à²²à²Ĺ": 1340,
      "Ġà³§à³¯": 1341,
      "Ġà²¶à²¤à²®": 1342,
      "Ġh": 1343,
      "à³ģ;": 1344,
      "Ġà²¸à²¸": 1345,
      "Ġà²ļà²²à²¨": 1346,
      "Ġà²¦à²¶à²ķ": 1347,
      "Ġ21": 1348,
      "à²·à²§": 1349,
      "Ġà²İà²¡": 1350,
      "à²°à²£à²Ĺà²³": 1351,
      "Ġà²¬à²³à²¸à²²": 1352,
      "à²£à²®à²Ł": 1353,
      "à²ĩà²²": 1354,
      ").": 1355,
      "15": 1356,
      "Ġà²Ĩà²³": 1357,
      "à²Īà²Ĺ": 1358,
      "à²Łà²ķà²¦à²²": 1359,
      "à³ģ'": 1360,
      "Ġ22": 1361,
      "à³ģ.[": 1362,
      "à²°à²Ĺà²¤": 1363,
      "Ġà²ļà²ķ": 1364,
      "Ġà²Ĩà²Ĺà²¸": 1365,
      "ss": 1366,
      "Ġà²ĩà²°à²¬": 1367,
      "à²Łà²¡": 1368,
      "Ġà²¹à²µ": 1369,
      "à²¤à²Ĺà²³": 1370,
      "à³Ĭ.": 1371,
      "Ġ100": 1372,
      "à²¤à²¸": 1373,
      "ow": 1374,
      "à²°à²®à²Ĺà²³": 1375,
      "âĢįà³į": 1376,
      "à²¶à²°": 1377,
      "à²ħà²®": 1378,
      "à³Ĩ;": 1379,
      "à²²à²Ńà²µ": 1380,
      "....": 1381,
      "à²¤à²·": 1382,
      "Ġto": 1383,
      "Ġà²¤à²°à²Ĺà²¤": 1384,
      "à²°à²®à²ķ": 1385,
      "à²¦à²Ĺà²³": 1386,
      "Ð¾": 1387,
      "à²¥à²³à²¦à²²": 1388,
      "à²İà²ļ": 1389,
      "Ġof": 1390,
      "à²ªà²Ĺà²³": 1391,
      "à²Ńà²ķ": 1392,
      "à²ħà²²": 1393,
      "Ġà²°à²ľ": 1394,
      "Ġà²Ĵà²ķ": 1395,
      "ÂŃ": 1396,
      "Ġà²¶à²¬": 1397,
      "Ġà²®à²²à²Ĺ": 1398,
      "à²¸à²°à²¨": 1399,
      "à²·à²Ĺà²³à²²": 1400,
      "à²¥à²¦": 1401,
      "Ġà²¹à²£à²µà²¨": 1402,
      "à²¶à²¨à²¦": 1403,
      "Ġà²¶à²°à²£": 1404,
      "Ġà²Ĩà²ļà²°à²£": 1405,
      "Ġg": 1406,
      "à²Łà²ªà²¡": 1407,
      "Ġà³©": 1408,
      "à²ķà²£": 1409,
      "ist": 1410,
      "Ġà³§": 1411,
      "à²ĺà²Ł": 1412,
      "tt": 1413,
      "ĠW": 1414,
      "25": 1415,
      "à²£à²µà²¨": 1416,
      "Ġà²ĸà²ļ": 1417,
      "Ġà²ħà²¸à²®": 1418,
      "99": 1419,
      "Ġà²ªà²¦à²ķ": 1420,
      "ir": 1421,
      "Ġ40": 1422,
      "Ġà²Ķà²·à²§": 1423,
      "à²ªà²ķà²°": 1424,
      "Ġà²¤à²Ĺ": 1425,
      "Ġl": 1426,
      "Ġà²¤à²ľ": 1427,
      "Ġà²ĺà²Łà²ķ": 1428,
      "ĠJ": 1429,
      "op": 1430,
      "à²µà²ª": 1431,
      "Ġà²ħà²¯": 1432,
      "à²ŀà²°": 1433,
      "Ġà²īà²ªà²¨": 1434,
      "à³įâĢĭâĢĭ": 1435,
      "Ġà²ľà²¨à²°à²¨": 1436,
      "à²ĵ": 1437,
      "iv": 1438,
      "Ġ23": 1439,
      "Ġ?": 1440,
      "à²¡à²µà²°": 1441,
      "à²ªà²¯": 1442,
      "à²ķà²°à²°": 1443,
      "à²¬à²¸": 1444,
      "âĢľ": 1445,
      "Ġà²īà²ªà²¸": 1446,
      "Ġv": 1447,
      "à²ħà²¦": 1448,
      "à²ķà²µà²¨": 1449,
      "Ġ...": 1450,
      "Ġ2017": 1451,
      "Ġà²ħà²ªà²ĺ": 1452,
      "à²µà²§": 1453,
      "Ġ28": 1454,
      "Ġà²¹à²¦": 1455,
      "à²£à²®": 1456,
      "Ġà²¬à²¨": 1457,
      "Ġà²Ĵà²²": 1458,
      "à²ĸà²¨": 1459,
      "Ġà²¤à²°à²²": 1460,
      "Ġà²µà²¤": 1461,
      "Ġà²¹à²Ĺ": 1462,
      "à²¹à²¨à²Ĺà²³": 1463,
      "ab": 1464,
      "Ġà²¤à²®à²Ĺ": 1465,
      "à²°à²®à²µà²¨": 1466,
      "à²¤à²°à²¨": 1467,
      "à²¡à²µà²¨": 1468,
      "à²¬à²ķ": 1469,
      "ul": 1470,
      "à²ķà²³à²¨": 1471,
      "Ð°": 1472,
      "à²¤à²¨à²¦": 1473,
      "à²¸à²µà²¨": 1474,
      "à²¥à²³à²ķ": 1475,
      "Ġ#": 1476,
      "ric": 1477,
      "Ġthe": 1478,
      "à²ķà²®": 1479,
      "17": 1480,
      "th": 1481,
      "à²¤à²°à²¦à²²": 1482,
      "Ðµ": 1483,
      "à²®à²ª": 1484,
      "16": 1485,
      "Ġe": 1486,
      "à²īà²¤": 1487,
      "Ġà²Ĭà²Ł": 1488,
      "à²¡à²¦à²²": 1489,
      "Ġà²ıà²ª": 1490,
      "à²ļà²¦": 1491,
      "à²ħà²µà²°": 1492,
      "Ġà²Ĺà²Ł": 1493,
      "à²ķà²°à²¨": 1494,
      "ap": 1495,
      "ment": 1496,
      "Ġà²ĩà²®": 1497,
      "à²¤à²®à²µ": 1498,
      "Ġre": 1499,
      "24": 1500,
      "à²ľà²®": 1501,
      "us": 1502,
      "à²®à²µà²¨": 1503,
      "à²°à²°à²¨": 1504,
      "ang": 1505,
      "Ġà²ľà²ª": 1506,
      "Ġà²Īà²Ĺà²²": 1507,
      "à²«à²°": 1508,
      "Ġà²¸à²ľ": 1509,
      "à³ĥà²Ĥ": 1510,
      "ĠU": 1511,
      "Ġà²Ŀ": 1512,
      "à²°à²¤à²ķ": 1513,
      "14": 1514,
      "à²Ĺà²ª": 1515,
      "ation": 1516,
      "Ġ27": 1517,
      "à²²à²¯à²Ĺà²³": 1518,
      "Ġà²ĭ": 1519,
      "up": 1520,
      "Ġà²Ńà²Ĺà²µ": 1521,
      "Ġà²¬à²°à²¹": 1522,
      "à²¹à²¬": 1523,
      "à²¤à²¤": 1524,
      "Ġà²°à²¦": 1525,
      "os": 1526,
      "ib": 1527,
      "à²°à²®à²Ĺà²³à²¨": 1528,
      "à²ĺà²µ": 1529,
      "Ġà²ªà²ł": 1530,
      "Ġà²ķà²ł": 1531,
      "200": 1532,
      "Ġà²ªà²°à²¸": 1533,
      "Ġ26": 1534,
      "à²ķà²Ĺà²³": 1535,
      "à²·à²¯à²Ĺà²³": 1536,
      "à²²à²¯à²ķ": 1537,
      "à²¨à²¡à²¦à²²": 1538,
      "à²¯à²·": 1539,
      "à²ķà²¬": 1540,
      "à²²à²¸à²ķ": 1541,
      "à²£à²Ĺà²³à²²": 1542,
      "ers": 1543,
      "Ġà²Ĩà²ļ": 1544,
      "''": 1545,
      "Ġà³¨à³¦": 1546,
      "Ġà²Ĺà²²": 1547,
      "Ġà²Īà²¶": 1548,
      "Ġà²¦à²¤": 1549,
      "à²°à²ķà²µ": 1550,
      "im": 1551,
      "à²¬à²Ĺà²³": 1552,
      "à²ĩà²¤": 1553,
      "ãģ": 1554,
      "Ġà³ª": 1555,
      "à²¹à²¦à²²": 1556,
      "à²£à²²": 1557,
      "ï¿½ï¿½ï¿½": 1558,
      "à²£à²°": 1559,
      "Ġà²¯à²ķ": 1560,
      "Ġà²ªà²µ": 1561,
      "Ġà²¬à²¹à²³à²·": 1562,
      "à²¦à²¤": 1563,
      "à²¦à²®": 1564,
      "à²·à²®": 1565,
      "à²Ĺà²£à²¦à²²": 1566,
      "à²µà²Ń": 1567,
      "13": 1568,
      "à²³à²°": 1569,
      "Ġà²®à²Ĺà²¨": 1570,
      "à²°à²ķà²°à²£à²Ĺà²³": 1571,
      "à²²à²®": 1572,
      "Ġà²ľà²¨à²°à²²": 1573,
      "à²µà²¶": 1574,
      "à²¹à²®": 1575,
      "à²¦à²£": 1576,
      "à²ªà²µà²¨": 1577,
      "all": 1578,
      "à³Ĥà²Ĥ": 1579,
      "à²µà²ľ": 1580,
      "Ġà²Ĺà²¦": 1581,
      "Ġà²İà²«": 1582,
      "Ġà²¨à²ķà²²": 1583,
      "à²¯à²ļ": 1584,
      "à²¯à²ķà²¨": 1585,
      "Ġà²ıà²·": 1586,
      "à³į(": 1587,
      "Ġà²µà²¨": 1588,
      "av": 1589,
      "Ġà²¸à²°à²³": 1590,
      "eat": 1591,
      "Ġ199": 1592,
      "22": 1593,
      "Ġà²Īà²¡": 1594,
      "à²·à²¯à²¦à²²": 1595,
      "à²¤à²µà²°": 1596,
      "Ġà²ħà²µà²²": 1597,
      "art": 1598,
      "Ġà²ļà²²à²¨à²ļ": 1599,
      "à²ľà²§": 1600,
      "Ð¸": 1601,
      "à²Ĥ,": 1602,
      "à²®à²³": 1603,
      "Ġà²ĺà²Łà²ķà²¦": 1604,
      "ce": 1605,
      "à²²à²¸à²µà²¨": 1606,
      "à²³à²ľ": 1607,
      "):": 1608,
      "Ġà²Ĳà²¤": 1609,
      "Ġà²ľà²¨à²µà²°": 1610,
      "à²¿!": 1611,
      "à²·à²£à²Ĺà²³": 1612,
      "Ġà²ĩà²¤à²°à²°": 1613,
      "Ġà²¹à²°à²¡": 1614,
      "à²·à²Ĺ": 1615,
      "Ġà²İà²ķà²°": 1616,
      "Ġà²Ĩà²Ĺà²¬": 1617,
      "Ġà²ĩà²µà²¤": 1618,
      "Ġà²Ĩà²Łà²¦": 1619,
      "à²¨à²¯à²¦": 1620,
      "à²¶à²ª": 1621,
      "og": 1622,
      "ilm": 1623,
      "à²ħà²°": 1624,
      "Ġà²ķà²¦": 1625,
      "//": 1626,
      "à²¡à²®": 1627,
      "Ġand": 1628,
      "à²¿..": 1629,
      "à²Ĺà²¦à²°": 1630,
      "à²¨à²Ĺà²°à²¦": 1631,
      "à²£à²ª": 1632,
      "Ġà²ĩà²µà²¨": 1633,
      "Ġà²¸à²¬": 1634,
      "ai": 1635,
      "Ġon": 1636,
      "à²Ĺà²Ĺà²³à²²": 1637,
      "à²Łà²£à²¦": 1638,
      "--": 1639,
      "Ġà²Ĺà²³à²²": 1640,
      "Ġà²µà²¸à²¤": 1641,
      "Ġà²Ĳà²ª": 1642,
      "à²¦à²²à²¨": 1643,
      "Ġà²ªà²²": 1644,
      "à²¬à²¯": 1645,
      "Ġà²¨à²Łà²¨": 1646,
      "à³Ī,": 1647,
      "à²°à²ķà²°à²£à²¦": 1648,
      "à²²à²¯à²µ": 1649,
      "à²·à²£à²µ": 1650,
      "Ġà³«": 1651,
      "à²®à²§": 1652,
      "ÑĤ": 1653,
      "ure": 1654,
      "Ġà²¤à²Ł": 1655,
      "Ġ2016": 1656,
      "ction": 1657,
      "à²§à²Ĺà²³": 1658,
      "à²§à²¦à²²": 1659,
      "ww": 1660,
      "Ġà²ħà²ĸ": 1661,
      "à²¥à²Ĺ": 1662,
      "Ġà²¶à²¸": 1663,
      "à²Ĺà²Ĺà²³à²¨": 1664,
      "à²®à²ł": 1665,
      "Ġà²¬à²¯à²²": 1666,
      "à²£à²¬à²¹": 1667,
      "Ġ&": 1668,
      "à³Ĩ\"": 1669,
      "à²¬à²°à²¨": 1670,
      "à²°à²ªà²¤": 1671,
      "à²«à²²": 1672,
      "à²¿?": 1673,
      "Ġà²Ĵà²Ĺ": 1674,
      "à²°à²ķà²°à²£à²¦à²²": 1675,
      "Ġ60": 1676,
      "à³ģâĢ¦": 1677,
      "à²¯à²¶": 1678,
      "Ġà²¹à²²à²µà²°": 1679,
      "Ġ29": 1680,
      "ly": 1681,
      "Ġà²ªà²°à²¦": 1682,
      "Ġà²¬à²³à²²": 1683,
      "à²ªà²Ĺ": 1684,
      "Ġà²¸à²®à²Ĺ": 1685,
      "80": 1686,
      "Ġà²ĵà²µà²°": 1687,
      "à³ĨâĢ¦": 1688,
      "à²£à²¯": 1689,
      "Ġà²¸à²¹à²ľ": 1690,
      "à²·à²£à²¦": 1691,
      "ud": 1692,
      "Ġà²¬à²²à²µ": 1693,
      "Ġà²¹à²£à²¦": 1694,
      "à²ķà²¸": 1695,
      "à²ħà²ª": 1696,
      "à²µà²£à²Ĺ": 1697,
      "ttp": 1698,
      "à²·à²µà²¨": 1699,
      "Ġfor": 1700,
      "://": 1701,
      "à²¶à²¨à²¦à²²": 1702,
      "à²¹à²µà²¨": 1703,
      "Ġà²¤à²¨à²ķ": 1704,
      "Ġà²Ĳà²Ł": 1705,
      "Ġà²īà²®": 1706,
      "Ġà²¯à²²": 1707,
      "à²¸à²¸": 1708,
      "à²¾âĢĻ": 1709,
      "à²¯à²ķà²µ": 1710,
      "emb": 1711,
      "à²¦à²°à²µ": 1712,
      "à²¯à²®à²¦": 1713,
      "Ġ31": 1714,
      "âĢĪ": 1715,
      "23": 1716,
      "à²ĸà²ķ": 1717,
      "à²Ĺà²²à²ķ": 1718,
      "à²·à²¨à²²": 1719,
      "Ġà²¬à²°à²¬": 1720,
      "ĠCh": 1721,
      "28": 1722,
      "à²¦à²ķà²°": 1723,
      "40": 1724,
      "à³Ģ,": 1725,
      "ro": 1726,
      "à²£à²¤": 1727,
      "à²Ńà²Ĺ": 1728,
      "à²°à²ķà²Łà²µ": 1729,
      "Ġà²ĩà²°à²¬à²¹": 1730,
      "ĠÂ": 1731,
      "Ġà²Ĳà²¸": 1732,
      "à²ĺà²¨": 1733,
      "out": 1734,
      "Ð½": 1735,
      "Ġ500": 1736,
      "à²¶à²²": 1737,
      "à²ļà²¦à²²": 1738,
      "à²¯à²Ń": 1739,
      "à²īà²¦": 1740,
      "ĠFilm": 1741,
      "à²Łà²°à²²": 1742,
      "à²²à²¸à²¦": 1743,
      "est": 1744,
      "à²®à²¶": 1745,
      "Ġà²İà²®": 1746,
      "à²¨à²Ł": 1747,
      "ut": 1748,
      "à²·à²¯à²µ": 1749,
      "Ġà²ĺà²Ł": 1750,
      "ep": 1751,
      "Ġà²¬à²¸à²µà²°": 1752,
      "à²³à²¤": 1753,
      "60": 1754,
      "à²¬à²¤": 1755,
      "à²¬à²µ": 1756,
      "à³ģà²ĥ": 1757,
      "har": 1758,
      "à²¶à²¯": 1759,
      "Ġà²¤à²°à²ķ": 1760,
      "Ġà²¸à²¹à²ľà²µ": 1761,
      "à³įâĢĮâĢĻ": 1762,
      "à²ªà²¨à²µà²°": 1763,
      "Ġà²ļà²¨": 1764,
      "Ġà²ħà²µà²°à²²": 1765,
      "ass": 1766,
      "à²²à²°à²¨": 1767,
      "Ġà²¤à²¨à²Ĺ": 1768,
      "à¥¤": 1769,
      "Ġà²®à²¤à²Ĺà²³": 1770,
      "à³ģ\"": 1771,
      "Ġà²ļà²ª": 1772,
      "Ġà²µà²¶à²ķ": 1773,
      "ÑĢ": 1774,
      "à²ķà²°à²£à²¦": 1775,
      "Ġà²¨à²Ĺà²°à²¸à²Ń": 1776,
      "à²īà²¡": 1777,
      "à²ļà²³": 1778,
      "à²¬à²µà²°": 1779,
      "27": 1780,
      "Ġà²Ĭà²¹": 1781,
      "Ġï¿½ï¿½ï¿½ï¿½": 1782,
      "à²Ĺà²·": 1783,
      "ter": 1784,
      "à²¯à²ľ": 1785,
      "à²ĸà²¦": 1786,
      "Ġà²ķà²£à²ķ": 1787,
      "à²¾-": 1788,
      "Ġà²ħà²Ł": 1789,
      "Ġà²Ĩà²§à²°": 1790,
      "à²¯à²ªà²Ł": 1791,
      "à²²à²ķà²¨": 1792,
      "Ġà²°à²¶": 1793,
      "Ġà²²à²µ": 1794,
      "à²®à²ķà²µ": 1795,
      "26": 1796,
      "à²¯à²¨à²µà²°": 1797,
      "Ġà²ĵà²°": 1798,
      "21": 1799,
      "à²ħà²¤": 1800,
      "à²¶à²ªà²¡": 1801,
      "Ġà²ļà²®à²ļ": 1802,
      "Ġ!": 1803,
      "lo": 1804,
      "Ġ35": 1805,
      "Ġà²ĩà²ª": 1806,
      "à²°à²ķà²Łà²£": 1807,
      "à²ķà²®à²Ĺà²³": 1808,
      "à²¿(": 1809,
      "à²·à²¯à²µà²¨": 1810,
      "à³Ĩà³ķà²Ĥ": 1811,
      "Ġà²¸à²®à²¨": 1812,
      "à²¾:": 1813,
      "ri": 1814,
      "à²İà²°à²¡": 1815,
      "à³Ī.": 1816,
      "ibeat": 1817,
      "Ġà²ľà²Ĺà²¦": 1818,
      "à²ªà²ķà²µ": 1819,
      "Ġà²¦à²Ł": 1820,
      "âĢĤ": 1821,
      "à²łà²¡": 1822,
      "à²¸à²£": 1823,
      "à²¤à²ķà²°": 1824,
      "ĠFilmibeat": 1825,
      "à²°à²¹à²£": 1826,
      "Ġà²¨à²Łà²°": 1827,
      "à²ľà²¦à²²": 1828,
      "à²§à²µà²¨": 1829,
      "Ġà²®à²¹à²¦": 1830,
      "Ġà²®à²łà²¦": 1831,
      "are": 1832,
      "à³Ĭ,": 1833,
      "à²«à²²à²µ": 1834,
      "à²³à²¦à²²": 1835,
      "Ġà²µà²ľ": 1836,
      "à²§à²ªà²Ł": 1837,
      "Ġcon": 1838,
      "à²µà²ķà²ª": 1839,
      "Ġà²°à²¹": 1840,
      "à²®à²°à²£": 1841,
      "Ġà²ħà²°à²¸": 1842,
      "à²ľà²¯à²ª": 1843,
      "à²¸à²ª": 1844,
      "2017": 1845,
      "à²¬à²³à²ķ": 1846,
      "ress": 1847,
      "Ġ2009": 1848,
      "à²Ĳà²¸": 1849,
      "à²¤à²°à²ķ": 1850,
      "à³§à³¯": 1851,
      "à²Ńà²µà²¨": 1852,
      "Ġà²¤à²£": 1853,
      "han": 1854,
      "Ġà²ħà²µà²°à²¦": 1855,
      "Ġà²ĩà²ļ": 1856,
      "à²³à²¸": 1857,
      "Ñģ": 1858,
      "à²Ĺà²¦à²µà²°": 1859,
      "ev": 1860,
      "à²Ĺà²°à²¦": 1861,
      "Ġà²ľà²Ĺ": 1862,
      "à²¯à²¯": 1863,
      "Ġà²ķà²¡à²²": 1864,
      "Ġ80": 1865,
      "à²ĩà²¦à²°": 1866,
      "Ġ2008": 1867,
      "Ġà²¸à²ª": 1868,
      "à²Ĩà²¦": 1869,
      "à²§à²ªà²¡": 1870,
      "à²²à²ª": 1871,
      "Ġà²¡à²¬": 1872,
      "Ġà²µà²ļà²¨": 1873,
      "à²µà²Ĺà²³": 1874,
      "Ġà²Ĩà²Ĺà²¦": 1875,
      "Ġà²¶à²¤": 1876,
      "Ġà³¬": 1877,
      "à²®à²¡": 1878,
      "Ġ2015": 1879,
      "à²°à²®à²£": 1880,
      "Ġ2014": 1881,
      "à²Ńà²Ł": 1882,
      "45": 1883,
      "Read": 1884,
      "à³Ĩà²Ĥ.": 1885,
      "pp": 1886,
      "à²¥à²Ĺà²³": 1887,
      "Ġà²Ĩà²µà²°à²£à²¦à²²": 1888,
      "Ġà²¶à²¶": 1889,
      "à²¡à²¸": 1890,
      "Ġà²¬à²ļ": 1891,
      "Ġ2013": 1892,
      "Ġà²ľà²Ĺà²³": 1893,
      "à²¾..": 1894,
      "à²°à²®à²¨": 1895,
      "à³ĨâĢĿ": 1896,
      "Ġst": 1897,
      "Ð¾Ð": 1898,
      "à²¸à²µà²¦": 1899,
      "Ġà²®à²°à²¦": 1900,
      "Ġà²Ĺà²£à²ªà²¤": 1901,
      "à²¤à²³": 1902,
      "Ġy": 1903,
      "our": 1904,
      "à²Ĺà²³à²·": 1905,
      "Ġà²Ķà²Ł": 1906,
      "à²µà²°à²¦": 1907,
      "à²¯à²µà²°à²¨": 1908,
      "Ġà²ķà²®à²²": 1909,
      "ill": 1910,
      "Ð¤": 1911,
      "à³įâĢįâĢį": 1912,
      "ĠY": 1913,
      "à²ħà²ķ": 1914,
      "Ġkannada": 1915,
      "à³į\"": 1916,
      "à²ªà²®": 1917,
      "à²¶à²¨à²ķ": 1918,
      "à²¾|": 1919,
      "à³įâĢĮ:": 1920,
      "à²¯à²°à²²": 1921,
      "Ġà²¬à²¸à²µ": 1922,
      "à²°à²¬à²²": 1923,
      "Ġà²¨à²°à²¸": 1924,
      "à²²à²ķà²µ": 1925,
      "à²²à²¸à²Ĺà²³": 1926,
      "à²µà²¨à²ķ": 1927,
      "à²Ĩà²¨": 1928,
      "à³ģâĢĿ": 1929,
      "Ġ198": 1930,
      "ik": 1931,
      "à²¤à²ķà²Ĺà²³": 1932,
      "à²®à²¨à²Ĺà²°": 1933,
      "Ġà²°à²¤": 1934,
      "29": 1935,
      "à²°à²¹à²¦": 1936,
      "à²Ńà²µà²µ": 1937,
      "ck": 1938,
      "à²·à²£à²ķ": 1939,
      "Ġà²¬à²¡à²µà²°": 1940,
      "Ġà²ħà²°à²µ": 1941,
      "Ġà²Īà²µà²°": 1942,
      "ĠCom": 1943,
      "05": 1944,
      "Ġ)": 1945,
      "lection": 1946,
      "à²°à²£à²µà²¨": 1947,
      "à²°à²ķà²°à²£à²ķ": 1948,
      "Ġà²µà²¶à²ªà²¡": 1949,
      "hat": 1950,
      "Ġà²¨à²Ĺà²¦": 1951,
      "à²§à²ķà²°": 1952,
      "à²²à²ľ": 1953,
      "à³įâĢĮ)": 1954,
      "à²µà²ķà²¨": 1955,
      "Ġà²Ĺà²®à²¨à²ķ": 1956,
      "Ġà²¸à²¤à²¤": 1957,
      "à²¸à²¦à²°": 1958,
      "Ġà²¦à²¨": 1959,
      "Ġà²Īà²¤à²¨": 1960,
      "aj": 1961,
      "au": 1962,
      "à²°à²³à²¦": 1963,
      "Ġà²ħà²µà²¨à²¨": 1964,
      "à²¤à²¨à²µ": 1965,
      "à²¿\"": 1966,
      "09": 1967,
      "Ġà²°à²«": 1968,
      "Ġà²Ĩà²ĺ": 1969,
      "à²°à²¸à²Ń": 1970,
      "à³ģ(": 1971,
      "Ġà³¨à³¦à³§à³": 1972,
      "ĠâĢ¦": 1973,
      "à²¬à²¡": 1974,
      "Ġà²īà²ªà²µ": 1975,
      "Ġ70": 1976,
      "Ġà²İà²ª": 1977,
      "ate": 1978,
      "à²Ńà²¯": 1979,
      "à²·à²£à²¦à²²": 1980,
      "Ġab": 1981,
      "à²¨à²¬à²¹": 1982,
      "Ġà²īà²·": 1983,
      "ok": 1984,
      "à²²à²¸à²µ": 1985,
      "uru": 1986,
      "à³į...": 1987,
      "à²µà²¨à²µà²¨": 1988,
      "à²ĸà²¦à²²": 1989,
      "if": 1990,
      "à²¤à²°à²²": 1991,
      "à²£à²Ĺà²³à²¨": 1992,
      "à²µà²¯à²µ": 1993,
      "Ġà²µà²²à²¸": 1994,
      "à²ĩà²¦à²ķ": 1995,
      "Ġà²®à²ľ": 1996,
      "à²°à²£à²¦à²²": 1997,
      "à²µà²°à²Ĺà²³": 1998,
      "70": 1999,
      "Ġra": 2000,
      "ie": 2001,
      "à²Ĳà²İ": 2002,
      "Ġà²ļà²³à²µà²³": 2003,
      "esh": 2004,
      "Ġ2010": 2005,
      "Ġà²Ĩà²«à²°": 2006,
      "à²¿/": 2007,
      "à²ĺà²°": 2008,
      "Ġà¤": 2009,
      "Ġà²īà²ķ": 2010,
      "Ġà³¨à³¦à³¦": 2011,
      "ish": 2012,
      "à²·à²¯à²Ĺà²³à²¨": 2013,
      "à²Ľà²¤": 2014,
      "à²¸à²¬à²²": 2015,
      "Ġj": 2016,
      "ant": 2017,
      "à²¦à²µà²°à²¨": 2018,
      "à²Ńà²°à²£": 2019,
      "Ġà²¦à²¶à²ķà²Ĺà²³": 2020,
      "Ġà²®à²°à²Ĺà²³": 2021,
      "à²Ńà²Ĺà²³à²²": 2022,
      "à²¸à²Ĺà²³": 2023,
      "Ġà²īà²ªà²ķà²°à²£": 2024,
      "à²¦à²¹": 2025,
      "Ġà²ħà²¸à²¹": 2026,
      "Ġà²ıà²ķà²¦": 2027,
      "Ġà²¸à²°à²¬à²°": 2028,
      "ip": 2029,
      "Ġà²¶à²¤à²ķ": 2030,
      "Ġà²ķà²°à²Ĺ": 2031,
      "à²°à²¹à²µ": 2032,
      "à²ħà²§": 2033,
      "Ġà²Ĵà²¦": 2034,
      "à²¿âĢ¦": 2035,
      "Ġà²İà²¸à²Ĺ": 2036,
      "ood": 2037,
      "Ġà²¬à²°à²¦": 2038,
      "35": 2039,
      "à²Łà²ª": 2040,
      "Ġà²µà²¯": 2041,
      "umar": 2042,
      "angal": 2043,
      "ya": 2044,
      "à²Łà²µà²°": 2045,
      "à²ķà²°à²µ": 2046,
      "Ġà²ªà²¦à²Ĺà²³": 2047,
      "Ġà²Ńà²¤": 2048,
      "à²Ĳà²Ł": 2049,
      "à²¤à²Ĺà²³à²¨": 2050,
      "Ġà²İà²Ł": 2051,
      "Ġà²ħà²«": 2052,
      "à²ľà²¨à²°": 2053,
      "à²¬à²£": 2054,
      "Ġà²Īà²ľ": 2055,
      "news": 2056,
      "à²¯à²¨à²Ĺà²°": 2057,
      "à²¢à²¶": 2058,
      "Ġà²Īà²¤": 2059,
      "07": 2060,
      "Ġà²µà²²à²¯": 2061,
      "Ġ45": 2062,
      "à²Łà²Ĺà²³à²¨": 2063,
      "à²¬à²¦à²²": 2064,
      "ard": 2065,
      "à²®à²ªà²¤": 2066,
      "Ġà²Ĺà²¤": 2067,
      "Ġà²ħà²Ĺà²²": 2068,
      "Ġà²®à²°à²£": 2069,
      "ĠâĢĭ": 2070,
      "ags": 2071,
      "06": 2072,
      "Ġà²ıà²¨à²¨": 2073,
      "Ġà²Īà²ķ": 2074,
      "Ġà²İà²°": 2075,
      "Ġà²ľà²²à²ª": 2076,
      "ĠâĢĺâĢĺ": 2077,
      "Ġà²ħà²°à²®à²¨": 2078,
      "Ġà²ķà²Ľ": 2079,
      "à²¦à²°à²°": 2080,
      "Ġà²İà²¬": 2081,
      "à²Ĺà²Ń": 2082,
      "Ġabout": 2083,
      "à²µà²°à²ª": 2084,
      "Ġ..": 2085,
      "Ġ32": 2086,
      "à²µà²Ĺ": 2087,
      "à²¸à²¹": 2088,
      "âĢĻâĢĻ": 2089,
      "Ġà²µà²²à²¯à²¦à²²": 2090,
      "à²¾...": 2091,
      "48": 2092,
      "][": 2093,
      "der": 2094,
      "à²¦à²ª": 2095,
      "à²¨à²¬": 2096,
      "Ġà²«à²²à²ķ": 2097,
      "à²¨à²¡à²ķ": 2098,
      "Ġà²Ĩà²¤à²¨à²¨": 2099,
      "ity": 2100,
      "à²¬à²µà²¨": 2101,
      "Ġà²¨à²Ĺà²°à²Ĺà²³à²²": 2102,
      "à²¬à²°à²²": 2103,
      "à³Ĩ~": 2104,
      "Ġà²¬à²¯": 2105,
      "500": 2106,
      "à²Ĺà²°à²¨": 2107,
      "Ġà²ħà²¥": 2108,
      "à²Ĩà²Ĺ": 2109,
      "Ġà²ĩà²ķ": 2110,
      "Ġà²°à²¹à²¸": 2111,
      "08": 2112,
      "Ġà²ħà²µà²¤": 2113,
      "Ġà²ħà²¡à²Ĺ": 2114,
      "à²¨à²¨à²Ĺ": 2115,
      "di": 2116,
      "à²ļà²£": 2117,
      "à²°à²ķà²²": 2118,
      "à³ĭ.": 2119,
      "à²µà²¡": 2120,
      "à²·à²ª": 2121,
      "Ġà³§à³¦": 2122,
      "ub": 2123,
      "à³įâĢĮ-": 2124,
      "Ġà²®à²¤à²Ĺà²Ł": 2125,
      "à²ħà²Ń": 2126,
      "Tags": 2127,
      "ain": 2128,
      "Ġà²ķà²²à²¬": 2129,
      "ort": 2130,
      "à²¡à²¬à²²": 2131,
      "ah": 2132,
      "à²Łà²¸": 2133,
      "Ġà²Ĵà²°": 2134,
      "ãĤ": 2135,
      "à²°à²¸à²ķ": 2136,
      "à²§à²Ĺ": 2137,
      "à³Ĩ(": 2138,
      "ec": 2139,
      "Ġà²īà²ľ": 2140,
      "à²°à²¤à²µ": 2141,
      "à²łà²°": 2142,
      "à²®à²®": 2143,
      "à²łà²µ": 2144,
      "Ġà²°à²ĺ": 2145,
      "à²¡à²ª": 2146,
      "à²ķà²Ĺà²³à²¨": 2147,
      "à²¡à²Ĺà²³à²¨": 2148,
      "Ġà²ļà²¤": 2149,
      "à²°à²¥": 2150,
      "à²Ĺà²ľ": 2151,
      "à²İà²®": 2152,
      "à³Ĩ....": 2153,
      "à²ıà²ķ": 2154,
      "à²·à²¯à²¦": 2155,
      "Ġà²ķà²µà²¨": 2156,
      "Ġà²ħà²µà²³à²¨": 2157,
      "âĨ": 2158,
      "75": 2159,
      "Ġpr": 2160,
      "à²Ķ": 2161,
      "à²¨à²ªà²¦": 2162,
      "à²¾'": 2163,
      "http": 2164,
      "à²¸à²°à²¦": 2165,
      "Ġà²Ĩà²ªà²°": 2166,
      "31": 2167,
      "à²¹à²Ĺà²³": 2168,
      "à²ĸà²ķà²°": 2169,
      "Ġà²²à²Ĺ": 2170,
      "à²ĩà²µ": 2171,
      "à²¨à²Ĺà²°à²¦à²²": 2172,
      "Ġà²Ĩà²ľ": 2173,
      "Ġà²ħà²µà²®": 2174,
      "ru": 2175,
      "à²¥à²³à²Ĺà²³": 2176,
      "ast": 2177,
      "à²®à²Ĺà²³à²¨": 2178,
      "Ġà²¤à²¡à²µ": 2179,
      "Ġà³®": 2180,
      "à²ļà²²à²¨": 2181,
      "rice": 2182,
      "Ġà²¤à²µà²°": 2183,
      "à²¥à²ķ": 2184,
      "à²Ĩà²ķ": 2185,
      "à²ĩà²µà²°": 2186,
      "à³įâĢĮ'": 2187,
      "age": 2188,
      "à³¨à³¦": 2189,
      "à²¯à²¦à²µà²°": 2190,
      "à²¶à²¨à²µ": 2191,
      "AM": 2192,
      "Ġà²ĵà²ªà²¨": 2193,
      "Ġà²®à²¨à²°": 2194,
      "à²°à²ķà²°à²£à²µà²¨": 2195,
      "à²¶à²®": 2196,
      "à²łà²¦": 2197,
      "à²§à²¨à²¦": 2198,
      "ï¿½ï¿½ï¿½ï¿½ï¿½": 2199,
      "Ġà²Ĵà²³à²ªà²¡": 2200,
      "Ġà³Ń": 2201,
      "à³į!": 2202,
      "Ġà²¸à²¹à²ķà²°": 2203,
      "rab": 2204,
      "Ġà²¦à²¸à²°": 2205,
      "à²¥à²µà²¨": 2206,
      "à²¥à²¦à²²": 2207,
      "Ġ2006": 2208,
      "eng": 2209,
      "ĠRs": 2210,
      "ãĥ": 2211,
      "Ġà²µà²²à²¯à²¦": 2212,
      "Ġis": 2213,
      "à²ªà²Ĺà²³à²¨": 2214,
      "à²²à²¦à²µà²°": 2215,
      "à²ªà²¶": 2216,
      "Ġà²Ĩà²Łà²µ": 2217,
      "âĨĳ": 2218,
      "Ġà²Ĺà²£à²¨": 2219,
      "à²¥à²µà²°": 2220,
      "Ġà²ħà²°à²³": 2221,
      "Ġà²«à²°": 2222,
      "Ġà²¸à²ķà²²": 2223,
      "à²¤à²¨à²µà²¨": 2224,
      "Ġà²ľà²¡": 2225,
      "ht": 2226,
      "à²Łà²ķà²ķ": 2227,
      "Ġ2019": 2228,
      "à²¤à²ľ": 2229,
      "Ġ150": 2230,
      "ies": 2231,
      "Ġà²ĵà²¦à²²": 2232,
      "Ġà²Ĵà²¨": 2233,
      "à²¤à²¨à²ķ": 2234,
      "ong": 2235,
      "Ġà²ªà²µà²°": 2236,
      "à³§à³¦": 2237,
      "à²ļà²µ": 2238,
      "Ġà²¸à²°à²³à²µ": 2239,
      "Ġà²Ĳà²¡": 2240,
      "ura": 2241,
      "à²§à²¨à²ķ": 2242,
      "Ġà²¬à²³à²¸à²¬à²¹": 2243,
      "à²°à²ĸ": 2244,
      "77": 2245,
      "Ġà²«à²²à²µ": 2246,
      "à²ıà²¨": 2247,
      "à²¿âĢĿ": 2248,
      "Ġà²¹à²Ĺà²²": 2249,
      "angalore": 2250,
      "Ġà²ĩà²¡à²²": 2251,
      "Ġà²Łà²°": 2252,
      "à²ĩà²¡": 2253,
      "à²µà²°à²Ĺà²³à²¨": 2254,
      "Ġ2011": 2255,
      "Ġà²ĩà²µà²°à²¨": 2256,
      "Ġà²°à²ľà²¨": 2257,
      "à²¸à²°à²Ĺ": 2258,
      "2016": 2259,
      "sh": 2260,
      "à²¯à²®à²Ĺà²³à²¨": 2261,
      "ee": 2262,
      "ind": 2263,
      "à²Ĺà²¶": 2264,
      "ĠSt": 2265,
      "à²¤à²¹à²¦": 2266,
      "ost": 2267,
      "à²ľà²¨à²µ": 2268,
      "Ġà²Īà²°": 2269,
      "à²·à²²": 2270,
      "à²¿;": 2271,
      "à²ľà²¨à²ķ": 2272,
      "ith": 2273,
      "Ġ90": 2274,
      "old": 2275,
      "Ġà²Łà²¨": 2276,
      "à²¬à²Ĺ": 2277,
      "Ð»": 2278,
      "Ġà²Ĵà²£à²Ĺ": 2279,
      "à²¯à²®à²¦à²²": 2280,
      "ĠComment": 2281,
      "à²°à²«": 2282,
      "à²¤à²ķà²¦": 2283,
      "à²Łà²£à²¦à²²": 2284,
      "à²Ĺà²ªà²¡": 2285,
      "Ġ36": 2286,
      "Ġà²ıà²ľ": 2287,
      "33": 2288,
      "à²¤à²ķà²Ĺà²³à²¨": 2289,
      "Ġà²¬à²¤": 2290,
      "à²²à²¸à²Ĺà²³à²¨": 2291,
      "à²£à²¬": 2292,
      "à²ļà²¯à²µ": 2293,
      "à²¯à²®à²µ": 2294,
      "à³Ī:": 2295,
      "à²¨à²¹à²³": 2296,
      "Ġà²¸à²¡": 2297,
      "Ġà²ļà²¡": 2298,
      "04": 2299,
      "à²¥à²³à²Ĺà²³à²²": 2300,
      "à³įâĢ¦": 2301,
      "à²ĸà²¨à²¦à²²": 2302,
      "à®": 2303,
      "à²¤à²Ĺà²³à²²": 2304,
      "ureau": 2305,
      "à°": 2306,
      "à²ĩà²·": 2307,
      "à²Ĵà²Ł": 2308,
      "à²¦à²¦à²²": 2309,
      "Ġà²ªà²¬": 2310,
      "55": 2311,
      "ĠNo": 2312,
      "Ġà²Ĩà²¡à²²": 2313,
      "ine": 2314,
      "à²Ĩà²¸": 2315,
      "Ġà²Ĩà²¦à²·": 2316,
      "Ġà²¨à²Ĺà²°à²Ĺà²³": 2317,
      "Ġà²¦à²ª": 2318,
      "Ġà²¸à²¹à²¯": 2319,
      "Ġà²¸à²®à²¯à²ķ": 2320,
      "BP": 2321,
      "Ġà³§à³®": 2322,
      "ide": 2323,
      "end": 2324,
      "à²°à²¸à²¨": 2325,
      "ex": 2326,
      "à²ķà²¬à²³": 2327,
      "Ġà²¦à²°à²¦à²²": 2328,
      "à²¬à²¦à²µà²°": 2329,
      "à³ģ/": 2330,
      "Ġà²ĩà²¦à²²": 2331,
      "à²ľà²¨à²Ĺà²°": 2332,
      "2013": 2333,
      "à²İà²ķ": 2334,
      "abad": 2335,
      "Ġà²¸à²¦à²°": 2336,
      "à³ĭ?": 2337,
      "Ġ300": 2338,
      "ont": 2339,
      "Ġr": 2340,
      "à²ĩà²Ĵ": 2341,
      "à²ªà²°à²®": 2342,
      "Ġà²ķà²°à²¡": 2343,
      "Ġkarnataka": 2344,
      "à²µà²µà²°à²¨": 2345,
      "ma": 2346,
      "Ġà³¯": 2347,
      "à²¢à²µ": 2348,
      "eg": 2349,
      "Ġà²ĵà²²": 2350,
      "jp": 2351,
      "03": 2352,
      "à²°à²¦à²µà²°": 2353,
      "und": 2354,
      "'s": 2355,
      "Ġà²¸à²¦à²¨": 2356,
      "Ġ2012": 2357,
      "Ġà²¨à²µà²°": 2358,
      "ob": 2359,
      "ĠâĢĮ": 2360,
      "à²¯à²¸à²Ń": 2361,
      "Ġà²¦à²¯": 2362,
      "à²¸à²°à²µ": 2363,
      "Ġ75": 2364,
      "Ġà²īà²¦à²¯": 2365,
      "rabha": 2366,
      "à²°à²¤à²°": 2367,
      "à²¶à²¸": 2368,
      "Ġà²Ńà²°à²¤": 2369,
      "à²¹à²¶": 2370,
      "à²ľà²Ĺà²³": 2371,
      "à²¦à²µà²³": 2372,
      "Ġà²Īà²ļ": 2373,
      "à²·à²ķà²°à²¨": 2374,
      "Ġà²¸à²®à²¤": 2375,
      "Ġà²¬à²¸à²µà²£": 2376,
      "ĠBureau": 2377,
      "ember": 2378,
      "à²ĸà²µà²¨": 2379,
      "Ġà²ĺà²°": 2380,
      "Ġ;": 2381,
      "prabha": 2382,
      "Ġà²Ĳà²«": 2383,
      "à²¥à²³à²¦": 2384,
      "ij": 2385,
      "Ġelection": 2386,
      "ous": 2387,
      "à²²à²®à²¨": 2388,
      "Ġà²¸à²ĸ": 2389,
      "Ġnews": 2390,
      "Ġ33": 2391,
      "à²ĩà²¸": 2392,
      "à²Ńà²µà²µà²¨": 2393,
      "à²³à²Ĺà²³": 2394,
      "à²¬à²²à²µ": 2395,
      "à²¿âĢĮ": 2396,
      "2015": 2397,
      "à²¥à²³à²µ": 2398,
      "90": 2399,
      "à²¤à²¨à²¨": 2400,
      "Ġ''": 2401,
      "à²¯à²®à²Ĺà²³à²²": 2402,
      "Ġà²§à²ķ": 2403,
      "nd": 2404,
      "ðŁ": 2405,
      "Ġ196": 2406,
      "Ġà²¬à²¯à²ķ": 2407,
      "à²£à²¨à²µà²°": 2408,
      "ĠâĢĿ": 2409,
      "Ġ34": 2410,
      "Ġà²īà²ªà²ļ": 2411,
      "à²¹à²²à²µ": 2412,
      "iz": 2413,
      "ice": 2414,
      "ï¿½ï¿½ï¿½ï¿½ï¿½ï¿½": 2415,
      "ĉĊ": 2416,
      "Ġà²Ĳà²µà²°": 2417,
      "à²ķà²°à²£à²ķ": 2418,
      "ome": 2419,
      "Ġà²¸à²®à²¯à²¦": 2420,
      "Ġà²¹à²ľ": 2421,
      "à²²à²¸à²¦à²²": 2422,
      "à²¯à²Ĺà²¤": 2423,
      "Ġà²ĭà²¤": 2424,
      "à²¸à²°à²ķ": 2425,
      "à²®à²Ĺà²³à²²": 2426,
      "à²Łà²¤": 2427,
      "à²·à²Ĺà²³à²¨": 2428,
      "Ġà²¸à²°à²¸": 2429,
      "Ġà²ªà²¨": 2430,
      "une": 2431,
      "Ġà²Ĳà²°": 2432,
      "à²Łà²³": 2433,
      "Ġà²īà²£": 2434,
      "à²ĺà²ķ": 2435,
      "âĢĭâĢĭ": 2436,
      "à²µà²°à²µ": 2437,
      "à²īà²ª": 2438,
      "à²·à²£à²µà²¨": 2439,
      "à²¸à²°à²²": 2440,
      "à²°à²¹à²Ĺà²³": 2441,
      "à²Ńà²µà²¦": 2442,
      "à²¤à²µà²µ": 2443,
      "à²·à²¨à²°": 2444,
      "à²¿âĢĵ": 2445,
      "Ġà³¦": 2446,
      "Ġ197": 2447,
      "à²§à²¨à²°": 2448,
      "Ġà²Ĵà²²à²µ": 2449,
      "à³į..": 2450,
      "----": 2451,
      "Ġà²®à²¨à²¦": 2452,
      "à²Łà²¡à²Ĺà²³": 2453,
      "oc": 2454,
      "à²¿),": 2455,
      "Ġ2000": 2456,
      "qu": 2457,
      "Ġà³§à³«": 2458,
      "02": 2459,
      "Ðº": 2460,
      "à²ķà²Ĺ": 2461,
      "à³į),": 2462,
      "Í¼": 2463,
      "à²¤à²ķà²¦à²²": 2464,
      "Ġà²¹à²ł": 2465,
      "47": 2466,
      "ics": 2467,
      "wood": 2468,
      "bp": 2469,
      "Ġà²Ĳà²¶": 2470,
      "à²Ĺà²¨à²µ": 2471,
      "à²¾à²Ĥ,": 2472,
      "à²Ńà²Ĺà²³": 2473,
      "Ġà²Ĩà²³à²µ": 2474,
      "Ġà²Ĩà²Ĺà²¬à²¹": 2475,
      "âĢĮâĢĮ": 2476,
      "Ġà²īà²Ńà²¯": 2477,
      "à²µà²¸à²¤": 2478,
      "à²¾âĢ¦": 2479,
      "Ġà²¤à²¹à²¶": 2480,
      "Ġ>": 2481,
      "Ġà²¬à²°à²µà²£": 2482,
      "Ġ2007": 2483,
      "à²ĩà²¦à²¨": 2484,
      "à²°à²¤à²µà²¨": 2485,
      "36": 2486,
      "à²ľà²¶": 2487,
      "ana": 2488,
      "à²°à²¯à²¦à²²": 2489,
      "à²³à²¤à²¨": 2490,
      "à²Ķà²Ł": 2491,
      "Ġà²ħà²Łà²²": 2492,
      "ess": 2493,
      "Ġ37": 2494,
      "Ġ38": 2495,
      "Ġ48": 2496,
      "ial": 2497,
      "âĢ¦]": 2498,
      "à²µà²ķà²µ": 2499,
      "44": 2500,
      "Ġà²¦à²¶": 2501,
      "ive": 2502,
      "à²²à²Ĺà²³à²¨": 2503,
      "à²ĺà²Ĺà²³": 2504,
      "Ġà²¨à²Ĺà²°à²ķ": 2505,
      "à²Łà²Ĺà²³à²²": 2506,
      "à²ķà²³à²²": 2507,
      "Ò»": 2508,
      "Ġà²µà²§": 2509,
      "sp": 2510,
      "à²®à²¤à²¦": 2511,
      "à²Łà²ªà²Ł": 2512,
      "Ġà²¯à²¨": 2513,
      "over": 2514,
      "Ġ[âĢ¦]": 2515,
      "à²ļà²³à²µ": 2516,
      "à²Ńà²ľà²¨": 2517,
      "à²µà²¹à²¨": 2518,
      "à²¯à²§": 2519,
      "à²Łà²¬": 2520,
      "vi": 2521,
      "à²¤à²¶": 2522,
      "à²¥à²Ĺà²³à²¨": 2523,
      "à²¯à²µà²²": 2524,
      "à²¾)": 2525,
      "à²ķà²²à²¬": 2526,
      "à²¼": 2527,
      "ho": 2528,
      "à²¦à²°à²¨": 2529,
      "Ġï¿½ï¿½": 2530,
      "à²ªà²¬": 2531,
      "Ġà²¦à²¶à²ķà²¦": 2532,
      "embly": 2533,
      "ata": 2534,
      "Ġà²Ĩà²ķà²¸": 2535,
      "38": 2536,
      "ug": 2537,
      "à²¡à²£": 2538,
      "à²ľà²¤": 2539,
      "à²¶à²¨à²µà²¨": 2540,
      "à²ľà²Ĺ": 2541,
      "à²Ńà²°": 2542,
      "100": 2543,
      "à²²à²¦à²°": 2544,
      "li": 2545,
      "à²ªà²ļ": 2546,
      "Ġà²¨à²µà²¦": 2547,
      "ust": 2548,
      "à²ħà²·": 2549,
      "à²ħà²¯": 2550,
      "Ġ1000": 2551,
      "Ġà³§à³¨": 2552,
      "à²¦à²¯à²¦": 2553,
      "à²¡à²ķà²Ł": 2554,
      "Ġà²§à²°à²£": 2555,
      "à²³à²µà²°": 2556,
      "Ġà²¬à²°à²¬à²¹": 2557,
      "Ġcom": 2558,
      "à²¨à²£": 2559,
      "à²°à²¤à²®": 2560,
      "à²®à²£à²°": 2561,
      "à²°à²³à²¦à²²": 2562,
      "56": 2563,
      "Ġà²Īà²¸": 2564,
      "Ġà²¸à²®à²¯à²µà²¨": 2565,
      "In": 2566,
      "à¶": 2567,
      "Ġà²ªà²¯": 2568,
      "Ġà²ħà²¨à²¨": 2569,
      "Ġà²®à²¨à²Ĺ": 2570,
      "Ġà²Ĵà²£": 2571,
      "Ġà²ľà²¨à²ľ": 2572,
      "Ġà²ªà²µà²¨": 2573,
      "Ġà²¹à²³à²¦": 2574,
      "à²¸à²³": 2575,
      "wam": 2576,
      "Ġch": 2577,
      "Ġà²¨à²®à²¸": 2578,
      "à²·à²¦à²µà²°": 2579,
      "Ġ400": 2580,
      "Ġà²¬à²°à²¹à²Ĺ": 2581,
      "Ġhttp": 2582,
      "à²Ĺà²µà²¤": 2583,
      "Ġat": 2584,
      "à²§à²Ĺà²³à²¨": 2585,
      "Ġà²¹à²£à²µ": 2586,
      "Ġ2004": 2587,
      "à²Ĺà²¯": 2588,
      "Ġà²ĵà²Ł": 2589,
      "Ġà²ľà²¯à²²": 2590,
      "Ġà²īà²ªà²®": 2591,
      "à²²à²¯à²µà²¨": 2592,
      "à²¹à²ľ": 2593,
      "à³¦à³¦à³¦": 2594,
      "32": 2595,
      "Ġà²®à²¤à²Ĺà²³à²¨": 2596,
      "dy": 2597,
      "Ġà²¦à²¯à²µ": 2598,
      "Ġà²°à²¥": 2599,
      "à²°à²¬à²°": 2600,
      "à²Ĩà²§": 2601,
      "34": 2602,
      "à²·à²¯à²ķ": 2603,
      "umb": 2604,
      "ac": 2605,
      "à³ģ....": 2606,
      "www": 2607,
      "à²¿~": 2608,
      ".[": 2609,
      "à²²à²¯à²Ĺà²³à²²": 2610,
      "à²Łà²¡à²¦": 2611,
      "Ġà²Ľà²¤": 2612,
      "Ñĥ": 2613,
      "à²ļà²Ĺ": 2614,
      "à²¥à²ª": 2615,
      "rict": 2616,
      "Ġà²¸à²¹à²¸": 2617,
      "à²ķà²¯": 2618,
      "Ġà²Ĩà²Łà²Ĺà²³": 2619,
      "Ġà²¦à²³": 2620,
      "Ġà²ħà²¹à²®à²¦": 2621,
      "!!!": 2622,
      "Ġà²īà²ªà²Ĺ": 2623,
      "ara": 2624,
      "à²¦à²Ĺà²³à²¨": 2625,
      "Ġà²¨à²Ĺà²°à²µ": 2626,
      "Ġass": 2627,
      "à²Ĺà²®à²¦": 2628,
      "à²Ĺà²³à²µà²°": 2629,
      "Ġà²Ĺà²ľ": 2630,
      "à²¬à²°à²¦": 2631,
      "Ġà²ľà²¨à²¨": 2632,
      "37": 2633,
      "aya": 2634,
      "Ġà²¯à²¥": 2635,
      "Ġà²®à²®à²¤": 2636,
      "load": 2637,
      "Ġà²Ĩà²®à²¦": 2638,
      "à²¤à²°à²ª": 2639,
      "à²¯à²ķà²°à²¨": 2640,
      "Ġth": 2641,
      "à²¶à²¯à²¦": 2642,
      "à²·à²£à²Ĺà²³à²¨": 2643,
      "Ġà²®à²¨à²®": 2644,
      "Ġà²ħà²®à²°": 2645,
      "à²ľà²µà²¨": 2646,
      "à²ħà²µ": 2647,
      "à²°à²³à²²": 2648,
      "Ġà²¹à²¡à²Ĺ": 2649,
      "à³ģ~": 2650,
      "Ġ*": 2651,
      "ff": 2652,
      "Ġà²İà²Ĳà²¸": 2653,
      "Ġà²ķà²³à²µ": 2654,
      "Ġà²ĩà²°à²¦": 2655,
      "à²ļà²°à²µ": 2656,
      "istrict": 2657,
      "ere": 2658,
      "à²Ĺà²Ĺ": 2659,
      "Ġà²ļà²¹": 2660,
      "Ġà²¥à²°": 2661,
      "ovie": 2662,
      "49": 2663,
      "à²ħà²¡": 2664,
      "Ġ55": 2665,
      "Ġà²Ĭà²Łà²¦": 2666,
      "à³ĩ!": 2667,
      "à²ĸà²°à²µ": 2668,
      "à²ħà²¶": 2669,
      "à²Ńà²¤": 2670,
      "Ġà²Ĳà²İ": 2671,
      "Ġà²īà²¬": 2672,
      "à·": 2673,
      "à²¹à²²à²ķ": 2674,
      "Ġbe": 2675,
      "Ġà²¨à²¡à²µà²³": 2676,
      "Ġà²ķà²ķ": 2677,
      "ys": 2678,
      "à²²à²¯à²¨": 2679,
      "Ġà²ķà²³à²ª": 2680,
      "ĠKannadaprabha": 2681,
      "ash": 2682,
      "à²°à²°à²²": 2683,
      "à³§à³®": 2684,
      "à²¸à²ļ": 2685,
      "à²°à²¨à²¨": 2686,
      "ĠX": 2687,
      "à³įâĢĿ": 2688,
      "à²ħà²µà²¨": 2689,
      "à²°à²Ĺà²¡": 2690,
      "à²³à²ª": 2691,
      "ical": 2692,
      "Ġà²¶à²µ": 2693,
      "à³§à³«": 2694,
      "à²Ĭ": 2695,
      "à²¤à²¡à²¦": 2696,
      "Ġà²®à²¹à²¡": 2697,
      "Ġà²Ĳà²¦à²¨": 2698,
      "ath": 2699,
      "Ġà²¡à²¯": 2700,
      "à²®à²¨à²µ": 2701,
      "46": 2702,
      "88": 2703,
      "Kannada": 2704,
      "à²¨à²°à²¸": 2705,
      "à²°à²£à²°": 2706,
      "à²¯à²¨à²¨": 2707,
      "à³į~": 2708,
      "Ġà²ħà²¸à²²": 2709,
      "à²ķà²°à²²": 2710,
      "itor": 2711,
      "à³§à³¨": 2712,
      "à²¸à²µà²¦à²²": 2713,
      "à³©à³¦": 2714,
      "Ġà²ªà²³": 2715,
      "à²¤à²°à²Ĺà²³": 2716,
      "Ġà²¸à²°à²¦": 2717,
      "à²°à²®à²Ł": 2718,
      "à²³à²µà²¨": 2719,
      "Ġà²Ĵà²¡à²¨": 2720,
      "Ġà²ªà²¦à²Ĺà²³à²¨": 2721,
      "à²Ĩà²¤": 2722,
      "ky": 2723,
      "à²§à²¨à²Ĺà²³": 2724,
      "Ġà²Ńà²µà²¨": 2725,
      "à²¤à²°à²µà²¨": 2726,
      "à³Ĩ/": 2727,
      "à²¶à²¨à²Ĺà²³": 2728,
      "AT": 2729,
      "Ġ65": 2730,
      "Ġà²¬à²°à²Ĺ": 2731,
      "à²ķà²²à²¨": 2732,
      "one": 2733,
      "ĠBangalore": 2734,
      "à²Ľà²Ĺ": 2735,
      "Ġà²¡à²¬à²²": 2736,
      "ary": 2737,
      "à²ľà²¯à²¨à²Ĺà²°": 2738,
      "à²¨à²ªà²Ł": 2739,
      "Ġï¿½": 2740,
      "Ġà²¥à²³": 2741,
      "aram": 2742,
      "à²®à²¨à²¸": 2743,
      "Ġà²²à²²": 2744,
      "199": 2745,
      "à²²à²ªà²¤": 2746,
      "à²¸à²°à²¦à²²": 2747,
      "à²¯à²®à²µà²¨": 2748,
      "Ø§": 2749,
      "à²Ĺà²³à²¦": 2750,
      "eb": 2751,
      "aluru": 2752,
      "Ġà²¸à²®à²¯à²µ": 2753,
      "à²¾!": 2754,
      "57": 2755,
      "Ġà²®à²¯": 2756,
      "Ġà²ĺà²Łà²ķà²Ĺà²³": 2757,
      "à²¦à²µà²°à²²": 2758,
      "ĠNov": 2759,
      "Ġà²ķà²¸à²°à²¤": 2760,
      "Ġà²¹à²¦à²Ĺ": 2761,
      "Ġà²¬à²²à²Ĺ": 2762,
      "à²¹à²¨à²Ĺà²³à²¨": 2763,
      "ell": 2764,
      "Ġà²¦à²¶à²ķà²¦à²²": 2765,
      "Ġà²Ĺà²¦à²Ĺ": 2766,
      "Ã¸": 2767,
      "âĢĻ,": 2768,
      "à²¤à²¬": 2769,
      "à²ħà²µà²³": 2770,
      "à²¤à²¯": 2771,
      "à²Łà²ķà²µ": 2772,
      "à²®à²ľ": 2773,
      "à²¹à²¨à²¦": 2774,
      "ach": 2775,
      "à´": 2776,
      "Ġà²¬à²³à²¸à²¬": 2777,
      "Ġà²ķà²¹": 2778,
      "à²ħà²¸": 2779,
      "à²¨à²ªà²°": 2780,
      "à²Ĳà²¡": 2781,
      "à²Ĺà²³à²¦à²²": 2782,
      "Ġà²ĩà²µà²³": 2783,
      "39": 2784,
      "à²«à²²à²°": 2785,
      "à²¬à²¨à²¨": 2786,
      "Ġà²°à²£": 2787,
      "2014": 2788,
      "à²Ĩà²¯": 2789,
      "Ġà²ıà²ķà²ķ": 2790,
      "à¤¾": 2791,
      "Ġelections": 2792,
      "Ġà²Ĺà²µ": 2793,
      "à²ĸà²¨à²Ĺà²³": 2794,
      "wamy": 2795,
      "à²¹à²¯": 2796,
      "à²°à²ķà²°à²£à²Ĺà²³à²²": 2797,
      "à²¶à²Ĺ": 2798,
      "oll": 2799,
      "Ġà²Ńà²µà²¨à²¦à²²": 2800,
      "Ġà²ħà²¨à²Ĺà²¤": 2801,
      "à²¾à²Ĥ.": 2802,
      "Ġ=": 2803,
      "rom": 2804,
      "elhi": 2805,
      "150": 2806,
      "Ġà²ħà²ªà²¹à²°": 2807,
      "à³ĩ...": 2808,
      "à²ķà²¥": 2809,
      "ati": 2810,
      "Ð²": 2811,
      "ear": 2812,
      "à²¤à²µà²²": 2813,
      "à²¹à²ļ": 2814,
      "Ġà²¤à²°à²¹": 2815,
      "à³ģ),": 2816,
      "ĠNew": 2817,
      "Ġà²Ĩà²ªà²²": 2818,
      "à²ļà²¤": 2819,
      "Ġcl": 2820,
      "engaluru": 2821,
      "Ġwith": 2822,
      "cc": 2823,
      "à²²à²¡": 2824,
      "Ġ250": 2825,
      "Ġà²ĸà²¨": 2826,
      "ĠThe": 2827,
      "Ġà²®à²¨à²µà²°": 2828,
      "à²¤à²ķà²µà²¨": 2829,
      "ry": 2830,
      "à²¨à²¹": 2831,
      "JP": 2832,
      "à²¸à²ķà²°à²¨": 2833,
      "à²¯à²®à²ķ": 2834,
      "Ġby": 2835,
      "ight": 2836,
      "Ġà²ħà²³à²¤": 2837,
      "à²ļà²µà²¨": 2838,
      "à²Ĺà²®à²µ": 2839,
      "TM": 2840,
      "à²®à²¨à²¨": 2841,
      "Ġà²ķà²²à²°": 2842,
      "Ġà²Ĳà²ķ": 2843,
      "à²Ĵà²¬": 2844,
      "à³į/": 2845,
      "ge": 2846,
      "Ġassembly": 2847,
      "à²ķà²°à²£à²Ĺ": 2848,
      "Ġà²Ĵà²³à²¨": 2849,
      "à²¥à²¶": 2850,
      "enn": 2851,
      "à²¿....": 2852,
      "Ġà²ľà²¸": 2853,
      "ord": 2854,
      "ail": 2855,
      "à²µà²¨à²µ": 2856,
      "olit": 2857,
      "à²ŀà²¤": 2858,
      "à³§à³©": 2859,
      "à²ªà²¦à²µ": 2860,
      "Ġà²®à²¨à²¦à²²": 2861,
      "__": 2862,
      "Ġà²·à²°à²¤": 2863,
      "à²§à²¨à²µ": 2864,
      "ĠPr": 2865,
      "à²Ĳà²Ĩà²°": 2866,
      "à²Ĳà²ª": 2867,
      "Ġ43": 2868,
      "Ġà²ĭà²£": 2869,
      "Ġà²ĺà²¨à²¤": 2870,
      "Ġdistrict": 2871,
      "ook": 2872,
      "Ġà²Ĩà²Ńà²°à²£": 2873,
      "à³ĨâĢĮ": 2874,
      "à²ľà²¨à²¶": 2875,
      "ans": 2876,
      "65": 2877,
      "ack": 2878,
      "à²¤à²¹à²µà²°": 2879,
      "Ġà²ľà²¯à²²à²²": 2880,
      "ĠĠ": 2881,
      "Ġà²Ĵà²¯": 2882,
      "Ġà²µà²¦": 2883,
      "hiv": 2884,
      "Ġ$": 2885,
      "Ñı": 2886,
      "à²°à²ķà²Łà²Ĺ": 2887,
      "à²¦à²¶": 2888,
      "Ġà²Ĭà²Łà²ķ": 2889,
      "ï¿½ï¿½ï¿½ï¿½ï¿½ï¿½ï¿½ï¿½": 2890,
      "ile": 2891,
      "à²¨à²Ń": 2892,
      "Ġ{": 2893,
      "Ġà²¸à²¯": 2894,
      "Ġà²¸à²ĸà²¤": 2895,
      "Ġà²Ĩà²¶à²¯": 2896,
      "Ġà²Ĺà²®à²¨à²¦à²²": 2897,
      "à²¨à²¶": 2898,
      "âĢĺâĢĺ": 2899,
      "à³ģâĢĵ": 2900,
      "à²ľà²¨à²Ĺ": 2901,
      "à²·à²Ń": 2902,
      "Ġà²²à²ĺ": 2903,
      "à²²à²ĺà²Ł": 2904,
      "à³Ĩ).": 2905,
      "Ġà²Ĳà²µà²¤": 2906,
      "man": 2907,
      "Ġhe": 2908,
      "à²Ļ": 2909,
      "Ġà²Ĩà²Ń": 2910,
      "à²¿ÂŃ": 2911,
      "Ġà²¤à²¬": 2912,
      "ctor": 2913,
      "AN": 2914,
      "odi": 2915,
      "Ġà²¨à²°à²³": 2916,
      "Ġan": 2917,
      "/-": 2918,
      "Ġ+": 2919,
      "à²¦à²¸": 2920,
      "à²²à²µà²²": 2921,
      "Ġà²µà²²": 2922,
      "Ġ39": 2923,
      "à³§à³ª": 2924,
      "à³«à³¦": 2925,
      "43": 2926,
      "Ġà²¨à²¨à²¸": 2927,
      "ld": 2928,
      "à²¬à²²à²¦": 2929,
      "Ġ49": 2930,
      "Ġ2005": 2931,
      "à²¶à²¯à²Ĺà²³": 2932,
      "Ġà²ľà²¯à²Ĺà²³": 2933,
      "eddy": 2934,
      "Ġà²¸à²®à²ķ": 2935,
      "ĠVij": 2936,
      "à²µà²²à²¤": 2937,
      "',": 2938,
      "à²®à²°à²¸": 2939,
      "Ġà²ľà²¨à²ªà²¦": 2940,
      "ank": 2941,
      "42": 2942,
      "58": 2943,
      "à³ĩ..": 2944,
      "ĠAT": 2945,
      "à²ķÃ¸": 2946,
      "org": 2947,
      "Ġà²īà²ªà²ķ": 2948,
      "Ġà²ħà²°à²¬": 2949,
      "à²µà²Ĺà²³à²¨": 2950,
      "ala": 2951,
      "à²ĭ": 2952,
      "se": 2953,
      "Ġ42": 2954,
      "Ġà²¦à²¶à²²à²ķ": 2955,
      "Ġà²®à²²à²¯": 2956,
      "Ġà²ªà²°à²¶": 2957,
      "à²°à²³à²µ": 2958,
      "ery": 2959,
      "Ġà²¸à²¹à²Ń": 2960,
      "ire": 2961,
      "à²Ĩà²ª": 2962,
      "à²·à²®à²¤": 2963,
      "Ġà²ĩà²Łà²²": 2964,
      "à³ģ).": 2965,
      "ĠÂ·": 2966,
      "66": 2967,
      "à²Ĺà²¬à²²": 2968,
      "cont": 2969,
      "Ġà²Ĺà²²à²Ń": 2970,
      "ult": 2971,
      "à²ªà²°à²°": 2972,
      "Ġà²İà²¡à²µ": 2973,
      "uk": 2974,
      "idd": 2975,
      "à²µà²¤à²µ": 2976,
      "à²¹à²°à²¨": 2977,
      "à²µà²¨à²¨": 2978,
      "Ġà²¸à²¤à²¤à²µ": 2979,
      "ase": 2980,
      "ket": 2981,
      "à²ļà²ķà²°": 2982,
      "Ġà²¶à²¬à²°": 2983,
      "à²Ĩà²²": 2984,
      "Ġà²¨à²°à²ķ": 2985,
      "ple": 2986,
      "à²¤à²ķà²µ": 2987,
      "med": 2988,
      "Ð¼": 2989,
      "Ġà²¹à²²à²¸": 2990,
      "andal": 2991,
      "ĠâĢĭâĢĭ": 2992,
      "Ġà²ªà²¯à²£": 2993,
      "ani": 2994,
      "Ġà²ĩà²µà²°à²²": 2995,
      "à²ļà²®": 2996,
      "à²³à²¨à²¦": 2997,
      "à²¾..?": 2998,
      "Ġà²®à²¹à²®": 2999,
      "à³Ĩ),": 3000,
      "à²¥à²¹": 3001,
      "hot": 3002,
      "Ġ@": 3003,
      "Ġà²¬à²ķ": 3004,
      "Ġà²¬à²²à²¦": 3005,
      "ĠDelhi": 3006,
      "à²Łà²ķà²Ĺà²³": 3007,
      "Ġà²¸à²µà²²à²¤": 3008,
      "Ġà²ħà²µà²°à²µà²°": 3009,
      "à²ĸà²Ĺà²³": 3010,
      "ĠPrice": 3011,
      "CR": 3012,
      "ef": 3013,
      "Ġà²¸à²µà²°": 3014,
      "à²¶à²¤": 3015,
      "Ġà²ħà²µà²ĺ": 3016,
      "ari": 3017,
      "Ġà²ªà²¦à²°": 3018,
      "à²µà²¨à²Ĺ": 3019,
      "âĢĮà³į": 3020,
      "Ġà²īà²ªà²ķà²°à²£à²Ĺà²³": 3021,
      "à²ķà²µà²°": 3022,
      "Ġà²¤à²°à²¹à²¦": 3023,
      "Ñĭ": 3024,
      "umbai": 3025,
      "Ġà²¨à²³": 3026,
      "à²¹à²ķà²°à²¨": 3027,
      "aswamy": 3028,
      "Ġà²¬à²¡à²¤à²¨": 3029,
      "à²¶à²¯à²µ": 3030,
      "à²¡à²¦à²µà²°": 3031,
      "na": 3032,
      "à³ĭ-": 3033,
      "à²¤à²°à²Ĺ": 3034,
      "à³§à³¬": 3035,
      "pur": 3036,
      "ĠâĢ¢": 3037,
      "à³į?": 3038,
      "Ġà²®à²¤à²¯": 3039,
      "âĢ¦.": 3040,
      "ve": 3041,
      "Ġex": 3042,
      "à²ľà²¯à²¨": 3043,
      "à²Ĺà²¸à²°": 3044,
      "à²ħà²¦à²ķ": 3045,
      "Ġ2001": 3046,
      "content": 3047,
      "Ġà²¬à²³à²Ĺ": 3048,
      "Ġà²¤à²ªà²¸": 3049,
      "oun": 3050,
      "Ġà²ĺà²¨": 3051,
      "Ġà²¯à²ľà²®": 3052,
      "à²¨à²ķà²°": 3053,
      "Ġà²ªà²ª": 3054,
      "ĠChand": 3055,
      "à²Łà²ķà²µà²¨": 3056,
      "à²·à²°à²¶": 3057,
      "dian": 3058,
      "à²¸à²µà²ķ": 3059,
      "Ġà³§à³¯à³¯": 3060,
      "à²ķà²°à²£à²µ": 3061,
      "upload": 3062,
      "ppa": 3063,
      "à²°à²ķà²¥": 3064,
      "à¥į": 3065,
      "Ġun": 3066,
      "ele": 3067,
      "hats": 3068,
      "overn": 3069,
      "à²¸à²Ĺà²³à²¨": 3070,
      "wp": 3071,
      "Ġà²Ĺà²®à²¨à²¹à²°": 3072,
      "Ġsh": 3073,
      "pa": 3074,
      "Ġà²ĭà²·": 3075,
      "Ġà²Ĺà²£à²°": 3076,
      "à²·à²ķà²µ": 3077,
      "Ġà²¹à²°à²¸": 3078,
      "Ġà²¯à²ľ": 3079,
      "à²ħà²¦à²°": 3080,
      "Ġà³§à³Ń": 3081,
      "à³ĩâĢĻ": 3082,
      "Ġà²¹à²Ł": 3083,
      "à²·à²¯à²Ĺà²³à²²": 3084,
      "Ġle": 3085,
      "à³ģ]": 3086,
      "à³ģâĢĮ": 3087,
      "ĠBold": 3088,
      "ĠTAM": 3089,
      "uploads": 3090,
      "Ġ600": 3091,
      "IC": 3092,
      "85": 3093,
      "Ġà²¢": 3094,
      "Ġà²¶à²°à²¤": 3095,
      "iah": 3096,
      "à³§à³§": 3097,
      "ER": 3098,
      "à²·à²ķà²¨": 3099,
      "its": 3100,
      "Ġà³§à³¬": 3101,
      "à²°à²ķà²°à²£à²Ĺà²³à²¨": 3102,
      "ĠTAMU": 3103,
      "andalwood": 3104,
      "à²²à²¸à²Ĺ": 3105,
      "Sky": 3106,
      "Ð´": 3107,
      "à²İà²ª": 3108,
      "Ġ72": 3109,
      "port": 3110,
      "à³Ĩ''": 3111,
      "Ġà²Ńà²¯à²µ": 3112,
      "Ġ64": 3113,
      "ĠBoldSky": 3114,
      "Ġà³§à³§": 3115,
      "à²¹à²Ł": 3116,
      "Ġà²¨à²¸": 3117,
      "ram": 3118,
      "Ġà²µà²¡": 3119,
      "Ġà²·à²°": 3120,
      "Ġà²ªà²¦à²µà²¨": 3121,
      "TML": 3122,
      "à²ķà²²à²°": 3123,
      "Ġà²Ĳà²·": 3124,
      "à²²à²¨à²Ĺà²°": 3125,
      "Ġà²µà²ļ": 3126,
      "Ġà²¸à²¬à²²": 3127,
      "à²ķÃ¸à²¤": 3128,
      "à³§à³Ń": 3129,
      "à²ħà²ľ": 3130,
      "à²ķà²ªà²ķ": 3131,
      "ĠAn": 3132,
      "Ġfrom": 3133,
      "à²Ľà²µ": 3134,
      "ek": 3135,
      "à²¯à²®à²¯": 3136,
      "eal": 3137,
      "à²ĸà²ª": 3138,
      "Ġ01": 3139,
      "à²µà²¨à²¹à²³": 3140,
      "ĠBhar": 3141,
      "à²¸à²¨à²¦": 3142,
      "à²ĩà²¬": 3143,
      "à²ªà²ķà²°à²£": 3144,
      "ĠBJP": 3145,
      "umaraswamy": 3146,
      "à²ĩà²Ł": 3147,
      "inist": 3148,
      "Ġà²Ĳà²İà²İà²¸": 3149,
      "oo": 3150,
      "à²£à²ļ": 3151,
      "Ġà²¬à²Łà²¨": 3152,
      "à²°à²®à²Ĺà²³à²²": 3153,
      "ãĢ": 3154,
      "à²Ĺà²°à²¹": 3155,
      "Ġà²ķà²³à²ļ": 3156,
      "à²²à²Ł": 3157,
      "Ġà²ľà²Ĺà²³à²µ": 3158,
      "à²°à²£à²Ĺà²³à²¨": 3159,
      "ĠHTML": 3160,
      "ĠÐ¿": 3161,
      "yder": 3162,
      "à²¯à²¯à²¨à²¦": 3163,
      "à²¬à²¬": 3164,
      "Ġà²ķà²Ĺ": 3165,
      "âĢĻ.": 3166,
      "à³įà²¾": 3167,
      "Ġ2002": 3168,
      "Ġà²«à²¸": 3169,
      "68": 3170,
      "ĠMumbai": 3171,
      "ÑĮ": 3172,
      "Ġà²ķà²¦à²¨": 3173,
      "Ġà²İà²ľ": 3174,
      "Ġ08": 3175,
      "Ġà²Ĩà²°à²¨": 3176,
      "Home": 3177,
      "à²µà²°à²²": 3178,
      "à²²à²¦à²ķ": 3179,
      "à²·à²°à²¨": 3180,
      "à²µà²°à²£à²Ĺ": 3181,
      "Ġà²Ńà²ľà²¨": 3182,
      "à²Ĺà²£à²¨": 3183,
      "à²¤à²£": 3184,
      "à²ľà²Ĺà²¤": 3185,
      "Ġà²ıà²ķà²¤": 3186,
      "à²¡à²¯": 3187,
      "Ġà²ľà²²à²¸": 3188,
      "yderabad": 3189,
      "ue": 3190,
      "64": 3191,
      "RE": 3192,
      "à²°à²¹à²µà²¨": 3193,
      "ennai": 3194,
      "Ġà²ĸà²ľ": 3195,
      "à¤°": 3196,
      "Ġà²¦à²¬": 3197,
      "Ġà²ħà²Ńà²¯": 3198,
      "54": 3199,
      "urappa": 3200,
      "Ġà²®à²Ĺà²¨à²¨": 3201,
      "da": 3202,
      "Ġà²¸à²¹à²¨": 3203,
      "Ġyou": 3204,
      "Ġ44": 3205,
      "Ġà²®à²Ĺà²³à²¨": 3206,
      "à²Łà²ķà²°": 3207,
      "à²Ĺà²ªà²Ł": 3208,
      "Ġà²İà²¡à²Ĺ": 3209,
      "à²¾||": 3210,
      "à²¯à²ªà²¡": 3211,
      "Ġà²Ĺà²µà²°": 3212,
      "Ġà²Ĺà²Ĺà²¨": 3213,
      "à²¦à²¯à²µ": 3214,
      "Ġà²¤à²¦": 3215,
      "à²µà²°à²£à²¦à²²": 3216,
      "ph": 3217,
      "à²¡à²°à²¨": 3218,
      "Ġà²¹à²¸à²¨": 3219,
      "olk": 3220,
      "à²ħà²¥à²µ": 3221,
      "ĠPune": 3222,
      "ime": 3223,
      "Ġà³§à³ª": 3224,
      "Ġà²¦à²³à²¦": 3225,
      "Ġà²¤à²¡à²°": 3226,
      "52": 3227,
      "Ġà³©à³¦": 3228,
      "Ġà²Ĺà²¨": 3229,
      "pr": 3230,
      "à²¸à²ľ": 3231,
      "Ġà²ķà²³à²µà²³": 3232,
      "à²ľà²ķà²°": 3233,
      "à²ħà²¬": 3234,
      "à²İà²°à²¡à²¨": 3235,
      "à²¨à²®à²Ĺ": 3236,
      "Ġà²ľà²¨à²ªà²°": 3237,
      "aiah": 3238,
      "à²£à²ªà²¤": 3239,
      "overnment": 3240,
      "ĠĊ": 3241,
      "à²¸à²¦à²¸": 3242,
      "ĠCare": 3243,
      "à²Ńà²µà²Ĺà²³": 3244,
      "Ġà²¸à²«": 3245,
      "Ġ47": 3246,
      "à²¨à²®à²¤": 3247,
      "à²¤à²¡à²ķ": 3248,
      "Ġà²¦à²°à²µà²¨": 3249,
      "Ġà²®à²°à²Ĺà²³à²¨": 3250,
      "Ġà²ķà²¸à²¦": 3251,
      "à²¹à²ª": 3252,
      "à²¬à²Ł": 3253,
      "à³Ī-": 3254,
      "Ġà²īà²ªà²¦": 3255,
      "Ġ120": 3256,
      "Ġà²ľà²Ł": 3257,
      "Ġà²Ńà²¯à²¦": 3258,
      "Ġ56": 3259,
      "Ġà²¹à²°à²ķ": 3260,
      "Ġà²Ĵà²³à²ªà²Ł": 3261,
      "Ġà³§à³©": 3262,
      "à²µà²°à²ķ": 3263,
      "cy": 3264,
      "à²·à²°à²Ĺà²³": 3265,
      "icle": 3266,
      "à²Łà²µà²¶": 3267,
      "res": 3268,
      "ongress": 3269,
      "Ġà²ĵà²ķ": 3270,
      "Ġà²¯à²¶à²µ": 3271,
      "78": 3272,
      "à²ĸà²¬": 3273,
      "59": 3274,
      "à²ļà²¬": 3275,
      "à²¹à²Ĺ": 3276,
      "Ġà²ħà²³à²²": 3277,
      "Ġ52": 3278,
      "kar": 3279,
      "Ġà²²à²¸": 3280,
      "ĠHyderabad": 3281,
      "à²¨à²¡à²µà²¨": 3282,
      "alli": 3283,
      "Ġà²²à²¤": 3284,
      "à²ħà²¹": 3285,
      "Ġà²ħà²¬à²ķ": 3286,
      "à¯": 3287,
      "à²¥à²³à²µà²¨": 3288,
      "Ì³": 3289,
      "à²°à²Łà²°": 3290,
      "à²¦à²¬": 3291,
      "à²Ĺà²¢": 3292,
      "Ġà²ªà²£": 3293,
      "à²¯à²¤à²ķ": 3294,
      "own": 3295,
      "Ġà²¬à²°à²¹à²Ĺà²³": 3296,
      "ey": 3297,
      "à²¸à²²à²°": 3298,
      "Ġà²ĩà²¸à²µ": 3299,
      "à²ĩà²°": 3300,
      "à²Īà²¶": 3301,
      "Ġà²ħà²ľà²¯": 3302,
      "ĠChennai": 3303,
      ",,": 3304,
      "ĠAh": 3305,
      "Ġne": 3306,
      "Ġà²ĩà²¡à²¬": 3307,
      "à²¶à²¨à²²": 3308,
      "ina": 3309,
      "eddyurappa": 3310,
      "lic": 3311,
      "à²¤à²®à²Ĺ": 3312,
      "arh": 3313,
      "Ġà³¨à³«": 3314,
      "ory": 3315,
      "Ġà²®à²ļ": 3316,
      "à²°à²¹à²ķ": 3317,
      "SS": 3318,
      "Ġà²ķà²°à²£": 3319,
      "à²°à²µà²¦": 3320,
      "à²ļà²¸": 3321,
      "à²¸à²µà²µà²¨": 3322,
      "Ġà²ļà²¦à²°": 3323,
      "à²īà²³": 3324,
      "à²łà²ķ": 3325,
      "à²Ĩà²«": 3326,
      "ĠVijaya": 3327,
      "à²ľà²£": 3328,
      "à³ĨâĢĵ": 3329,
      "à²®à²ķà²°à²£": 3330,
      "Ġà²ªà²¥": 3331,
      "à²°à²ļà²²": 3332,
      "ĠCareer": 3333,
      "Ġà²¦à²¡": 3334,
      "à²¯à²£à²¸": 3335,
      "à²¹à²²à²¦": 3336,
      "à²¹à²¨à²¦à²²": 3337,
      "ÑģÑĤ": 3338,
      "ork": 3339,
      "Ġà²ķà²¶": 3340,
      "Ġà²ľà²Ĺà²¨": 3341,
      "à²¤à²¨à²Ĺ": 3342,
      "ens": 3343,
      "à³Ĥ...": 3344,
      "oday": 3345,
      "Ġà²ĩà²¶": 3346,
      "à²°à²ķà²°à²£à²µ": 3347,
      "ĠAhmed": 3348,
      "Ġà²ķà²¬à²³": 3349,
      "à²¯à²µà²¹à²°": 3350,
      "ect": 3351,
      "à³į;": 3352,
      "à²¤à²¡à²µà²¨": 3353,
      "iddaram": 3354,
      "Ġà²Ĩà²¸à²°": 3355,
      "Ġha": 3356,
      "à²®à²µà²°": 3357,
      "Ġà²°à²¬": 3358,
      "à²ļà²ª": 3359,
      "??": 3360,
      "Ġà²¦à²°à²Ĺà²³": 3361,
      "Ġà²°à²Ń": 3362,
      "olkata": 3363,
      "à²Ĩà²Ĺà²¸": 3364,
      "eet": 3365,
      "à²¤à²¸à²¦": 3366,
      "Ġà²ľà²¯à²¶": 3367,
      "à²µà²¦à²°": 3368,
      "à²®à²¨à²¦": 3369,
      "Ġà²§à²µà²¨": 3370,
      "à²®à²ķà²Ĺ": 3371,
      "Ġ46": 3372,
      "Ġwww": 3373,
      "Ġà²ħà²²à²°": 3374,
      "à²¯à²ķà²°à²µ": 3375,
      "à²ķà²¬à²¹": 3376,
      "Ġà²¶à²®": 3377,
      "à²³à²¨à²¦à²²": 3378,
      "Ġà²®à²¦à²°": 3379,
      "att": 3380,
      "à²°à²µà²¹": 3381,
      "à³¨à³¦à³¦": 3382,
      "ĠJai": 3383,
      "53": 3384,
      "Ġà²µà²°à²®": 3385,
      "à²²à²µà²¤": 3386,
      "ĠRo": 3387,
      "à²®à²łà²¦": 3388,
      "artha": 3389,
      "ĠKolkata": 3390,
      "annad": 3391,
      "Ġà²¬à²²à²ªà²¡": 3392,
      "Ġà²ľà²¯à²°": 3393,
      "GB": 3394,
      "à²¬à²¸à²µ": 3395,
      "ance": 3396,
      "Ġ....": 3397,
      "à²Ńà²ľ": 3398,
      "Ġà²ľà²¨à²ķ": 3399,
      "ga": 3400,
      "ĠSh": 3401,
      "oss": 3402,
      "Ġ2003": 3403,
      "Ġà²¸à²²à²ķà²°à²£": 3404,
      "ĠCareerindia": 3405,
      "à²ķà²ļ": 3406,
      "oog": 3407,
      "à²ĸà²¨à²¦": 3408,
      "ition": 3409,
      "Ġ99": 3410,
      "ĠAr": 3411,
      "iss": 3412,
      "ĠAhmedabad": 3413,
      "Ġà²°à²®à²£": 3414,
      "Ġsandalwood": 3415,
      "igarh": 3416,
      "Ġ1999": 3417,
      "89": 3418,
      "ĠNovember": 3419,
      "ĠJaipur": 3420,
      "**": 3421,
      "ts": 3422,
      "à²®à²¨à²¹à²³": 3423,
      "Ġà²¯à²®": 3424,
      "ĠNCR": 3425,
      "iddaramaiah": 3426,
      "Ġ800": 3427,
      "72": 3428,
      "à²¨à²ªà²¡": 3429,
      "Ġcong": 3430,
      "ĠChandigarh": 3431,
      "41": 3432,
      "à²¿.,": 3433,
      "Ġ41": 3434,
      "ST": 3435,
      "à²¡à²¸à²°": 3436,
      "Ġà²ħà²¨à²§": 3437,
      "69": 3438,
      "Ġam": 3439,
      "à²§à²°à²°": 3440,
      "2011": 3441,
      "Ġà²®à²łà²ķ": 3442,
      "à²¬à²ľ": 3443,
      "à²¯à²®à²¦à²µà²°": 3444,
      "Ġà²ķà²£à²¦à²²": 3445,
      "51": 3446,
      "à²®à²¹à²¦": 3447,
      "à²ľà²¯à²²": 3448,
      "à²ĩà²µà²¤": 3449,
      "à²Ĺà²¦à²Ĺ": 3450,
      "ĠBharati": 3451,
      "à²¸à²®à²¨": 3452,
      "à²µà²°à²¯": 3453,
      "à²¢à²¨": 3454,
      "Ġà²ľà²¯à²¨à²Ĺà²°": 3455,
      "..!": 3456,
      "Ġà²ķà²®à²°": 3457,
      "ence": 3458,
      "ite": 3459,
      "ĠVartha": 3460,
      "67": 3461,
      "wit": 3462,
      "à²·à²¸": 3463,
      "à²¾(": 3464,
      "ĠEn": 3465,
      "Ġà²Ĩà²µà²°à²£": 3466,
      "à²²à²¸à²®": 3467,
      "à²²à²Ĺà²³à²²": 3468,
      "à²Łà²¹": 3469,
      "Ġ58": 3470,
      "oogle": 3471,
      "à²ĤâĢĻ": 3472,
      "price": 3473,
      "à²³à²ªà²¡": 3474,
      "Ġà²¤à²¶": 3475,
      "eep": 3476,
      "à²Ĳà²İà²¸": 3477,
      "à²Ĥ:": 3478,
      "à²ªà²¥": 3479,
      "Ġà²ıà²¡": 3480,
      "ĠâĢĶ": 3481,
      "ace": 3482,
      "à³įâĢĮâĢĵ": 3483,
      "Ġà²ħà²®à²²": 3484,
      "Ġà²¤à²¦à²¨": 3485,
      "Ġà²®à²°à²£à²¦": 3486,
      "à²ľà²¯à²ķ": 3487,
      "à²¾\"": 3488,
      "à²Ĩà²¹": 3489,
      "ĠZ": 3490,
      "Ġï¿½ï¿½ï¿½": 3491,
      "Ġà²¨à²®à²¨": 3492,
      "ĠUn": 3493,
      "Ġà²°à²¸à²µà²¨": 3494,
      "Ġà²¹à²Ĺà²°à²£": 3495,
      "Ġcongress": 3496,
      "ĠMovie": 3497,
      "à²·à²°à²¤": 3498,
      "à²¡à²²à²¦": 3499,
      "Ġà²®à²¹à²°": 3500,
      "Ġà²ħà²¦à²²": 3501,
      "Ġare": 3502,
      "à²µà²°à²°": 3503,
      "ays": 3504,
      "AR": 3505,
      "à²°à²Ńà²¦": 3506,
      "à²Ĺà²³à²¤": 3507,
      "Ġ700": 3508,
      "Ġà³į": 3509,
      "à²²à²·": 3510,
      "à²®à²¥": 3511,
      "Ġà²ıà²Ł": 3512,
      "Ġ51": 3513,
      "à²Ĵà²³": 3514,
      "Ġas": 3515,
      "à²°à²®à²£à²ķ": 3516,
      "à²µà²°à²¦à²²": 3517,
      "à²¯à²¤à²°": 3518,
      "à²³à²ļ": 3519,
      "Ġà²®à²°à²µ": 3520,
      "Ġà²¶à²°à²£à²°": 3521,
      "Ġà²ķà²µà²°": 3522,
      "à²§à²®": 3523,
      "Ġà²Ĳà²İà²¸": 3524,
      "oth": 3525,
      "Ġar": 3526,
      "à²Ĵà²ª": 3527,
      "Ġsp": 3528,
      "ame": 3529,
      "à²¶à²Ńà²ķ": 3530,
      "à²Ĺà²°à²£": 3531,
      "à³įâĢĮ...": 3532,
      "à²¯à²®à²Ł": 3533,
      "Ġà²ħà²ªà²µ": 3534,
      "à²ıà²°": 3535,
      "io": 3536,
      "Ġart": 3537,
      "à²¦à²¡": 3538,
      "Ġà²ħà²Ĺà²°": 3539,
      "à²¦à²²à²Ĺà²³": 3540,
      "ink": 3541,
      "à²¹à²¨à²µà²¨": 3542,
      "à²¯à²¬à²²": 3543,
      "Ġà³§à³¯à³®": 3544,
      "à³ģÂŃ": 3545,
      "âĢ¦âĢ¦": 3546,
      "à²£à²µà²°": 3547,
      "Ġà²ķà²¨à²¸à²¨": 3548,
      "à²§à²¨à²µà²¨": 3549,
      "Ġà²ļà²¦": 3550,
      "à²¶à²ķà²¨": 3551,
      "Ġà²®à²°à²ķ": 3552,
      "à²¬à²°à²µ": 3553,
      "à²§à²µà²°": 3554,
      "à²ªà²¨à²¹à²³": 3555,
      "ali": 3556,
      "ign": 3557,
      "à³įâĢĭâĢĭâĢĭ": 3558,
      "400": 3559,
      "ĠÃ": 3560,
      "ren": 3561,
      "à³¨à³«": 3562,
      "à²¯à²¯à²¨à²ķ": 3563,
      "à²§à²°à²¨": 3564,
      "Ġ53": 3565,
      "à²Ĵà²®": 3566,
      "Ġ125": 3567,
      "Ġi": 3568,
      "à²¶à²¬": 3569,
      "ditor": 3570,
      "à²¦à²ļ": 3571,
      "Ġpl": 3572,
      "à²Ĺà²°à²ķ": 3573,
      "à²¸à²¬à²°": 3574,
      "à²µà²°à²£à²µ": 3575,
      "à²°à²ķà²Ĺà²³": 3576,
      "à²Ĥ)": 3577,
      "à²¬à²®": 3578,
      "à³įâĢĮâĢĮâĢĮ": 3579,
      "Ġà²ľà²¯à²¦": 3580,
      "à²Ĺà²°à²¦à²²": 3581,
      "à²µà²µà²°à²²": 3582,
      "à²³à²¨à²ķ": 3583,
      "Ġà²®à²¹à²²": 3584,
      "Ġà²¸à²®à²µà²¸": 3585,
      "Ġclass": 3586,
      "à²¡à²¹": 3587,
      "Ġà²ħà²¡à²ļà²£": 3588,
      "à²¹à²¨à²µ": 3589,
      "ĠâĻ": 3590,
      "ext": 3591,
      "uc": 3592,
      "à²°à²¬à²²à²µ": 3593,
      "--------": 3594,
      "à²¨à²¦à²µà²°": 3595,
      "ÃĢ": 3596,
      "à²£à²µà²ļà²¨": 3597,
      "stit": 3598,
      "à²°à²®à²¬à²¦": 3599,
      "ars": 3600,
      "à²İà²¡": 3601,
      "à²¬à²²à²µà²¨": 3602,
      "IN": 3603,
      "à²«à²¨": 3604,
      "à²ħà²£": 3605,
      "à²ķà²ľ": 3606,
      "Ġper": 3607,
      "witter": 3608,
      "à²²à²¯à²Ĺà²³à²¨": 3609,
      "IT": 3610,
      "à²¿).": 3611,
      "orm": 3612,
      "Ġwill": 3613,
      "Ġà²¹à²°à²³": 3614,
      "à³Ĩ.)": 3615,
      ".....": 3616,
      "à²ķà²°à²£à²µà²¨": 3617,
      "87": 3618,
      "pl": 3619,
      "à²°à²£à²¯": 3620,
      "à³įâĢĭ,": 3621,
      "Ġà²Ĩà²£": 3622,
      "Ġà²¦à²£": 3623,
      "à²İà²·": 3624,
      "Ã´": 3625,
      "Ġà²Łà²µà²°": 3626,
      "Ġà²ªà²¦à²¦": 3627,
      "à²Ĺà²Ńà²¦": 3628,
      "Ġà²¨à²¶": 3629,
      "à³ĭâĢĻ": 3630,
      "Ġ54": 3631,
      "Ġà²ķà²£à²Ĺà²³": 3632,
      "Ġnot": 3633,
      "kannada": 3634,
      "Ġà²¬à²³à²¸à²¦": 3635,
      "Ġà³§à³¯à³Ń": 3636,
      "pt": 3637,
      "Ġ09": 3638,
      "à²¯à²¯à²¨à²Ĺà²³": 3639,
      "Ġ57": 3640,
      "Ġà²¨à²¯": 3641,
      "Ġà²Ńà²µà²¨à²¦": 3642,
      "à²ĸà²¨à²Ĺà²³à²¨": 3643,
      "ons": 3644,
      "Ġ66": 3645,
      "áĥ": 3646,
      "à²µà²¦à²¨": 3647,
      "ark": 3648,
      "ĠCongress": 3649,
      "à²²à²°à²²": 3650,
      "Ġà²ľà²¯à²®": 3651,
      "ake": 3652,
      "à²¸à²°à²µà²¨": 3653,
      "revi": 3654,
      "Top": 3655,
      "à²Ĺà²¡à²¦": 3656,
      "==": 3657,
      "à²¯à²°à²¸": 3658,
      "Ġà²ıà²²à²ķ": 3659,
      "Ġà³«à³¦": 3660,
      "Ġhi": 3661,
      "Ġà²ªà²¡à²¬": 3662,
      "999": 3663,
      "à²°à²¬à²°à²²": 3664,
      "Ġà²¹à²¡": 3665,
      "à±": 3666,
      "à²¨à²ªà²¤": 3667,
      "à²¥à²¤": 3668,
      "à²ĸà²Ń": 3669,
      "Ġà²ıà²³à²¨": 3670,
      "Ġà²ļà²ķà²®à²ķ": 3671,
      "me": 3672,
      "Ġà²°à²£à²µ": 3673,
      "Ġ85": 3674,
      "ï¿½ï¿½ï¿½ï¿½ï¿½ï¿½ï¿½": 3675,
      "à²¦à²²à²ķ": 3676,
      "ept": 3677,
      "86": 3678,
      "per": 3679,
      "à²°à²ªà²°": 3680,
      "ional": 3681,
      "Ġà²ĸà²¡à²ķ": 3682,
      "à²ĩà²¦à²°à²²": 3683,
      "Ġà²ķà²³à²ķà²³": 3684,
      "Ġà²¬à²³à²Ĺà²¦": 3685,
      "à²ªà²¦à²°": 3686,
      "DS": 3687,
      "agar": 3688,
      "Ġà²ħà²ªà²®": 3689,
      "ater": 3690,
      "à³Ĩ,âĢĿ": 3691,
      "à²İà²ĩ": 3692,
      "jpg": 3693,
      "à²¬à²²à²ķ": 3694,
      "ĠPhot": 3695,
      "à³Ĥ-": 3696,
      "à²µà²¨à²¶": 3697,
      "ĠðŁ": 3698,
      "Topics": 3699,
      "Ġà²Łà²ļ": 3700,
      "inister": 3701,
      "Ġà²®à²¨à²¨": 3702,
      ".,": 3703,
      "à²³à²¬à²²": 3704,
      "à²¶à²¨à²Ĺà²³à²¨": 3705,
      "\",": 3706,
      "ĠElection": 3707,
      "Ð½Ð¸": 3708,
      "II": 3709,
      "Ġal": 3710,
      "à²µà²°à²µà²¨": 3711,
      "Ġà²īà²Ł": 3712,
      "à²¤à²¨à²Ĺà²³": 3713,
      "Ġà²Ńà²Ĺ": 3714,
      "Ġà²Ńà²°à²¦": 3715,
      "Ġ69": 3716,
      "olitical": 3717,
      "à²ļà²³à²ķ": 3718,
      "à²Ńà²µà²Ĺà²³à²¨": 3719,
      "Ġà²«à²¸à²²": 3720,
      "à²®à²¨à²ķ": 3721,
      "Ġï¿½ï¿½ï¿½ï¿½ï¿½ï¿½": 3722,
      "à²²à²Ńà²¦": 3723,
      "mm": 3724,
      "à²®à²Ń": 3725,
      "à²łà²²": 3726,
      "icon": 3727,
      "Ġà²®à²¤à²ķ": 3728,
      "à³ªà³¦": 3729,
      "à³Ĩ.âĢĿ": 3730,
      "à²Ńà²µà²ķ": 3731,
      "gh": 3732,
      "Ġ59": 3733,
      "à²ĩà²¦à²²": 3734,
      "Ñĩ": 3735,
      "Ġà²Ĩà²°à²¤": 3736,
      "à²ĸà²¨à²µà²¨": 3737,
      "ĠÐ²": 3738,
      "ka": 3739,
      "Ġà²ħà²¨à²°": 3740,
      "à²°à²¯à²²": 3741,
      "Ġà²³": 3742,
      "Ġ63": 3743,
      "war": 3744,
      "à²łà²¤": 3745,
      "ĠÂ»": 3746,
      "Ġbjp": 3747,
      "Ø§Ù": 3748,
      "Ġ78": 3749,
      "Ġà²Ĳà²¨": 3750,
      "ĠIS": 3751,
      "79": 3752,
      "à²¹à²Ĺà²³à²¨": 3753,
      "Ġà²¤à²¹à²¸": 3754,
      "à²ľà²¯à²¦": 3755,
      "à²¶à²¨à²Ĺ": 3756,
      "andhi": 3757,
      "à²Ĺà²£à²¦": 3758,
      "ÑĢÐ°": 3759,
      "à²§à²¶": 3760,
      "ĠRam": 3761,
      "à³ĭ...": 3762,
      "Ġà²°à²¸à²Ĺ": 3763,
      "à²¿à²Ĥ.": 3764,
      "utt": 3765,
      "ĠDev": 3766,
      "hy": 3767,
      "à²³à²Ń": 3768,
      "à²ľà²Ĺà²³à²¨": 3769,
      "à²¤à²µà²¦à²²": 3770,
      "à²®à²Ĺà²¨": 3771,
      "Ġ68": 3772,
      "à²²à²¹à²³": 3773,
      "à²ªà²ª": 3774,
      "à²¥à²¹à²³": 3775,
      "ĠÑģ": 3776,
      "Ġ06": 3777,
      "Ġor": 3778,
      "à²¤à²ļà²°": 3779,
      "à³¨à³¨": 3780,
      "à²°à²Łà²Ĺ": 3781,
      "à²¸à²ķà²¨": 3782,
      "kumar": 3783,
      "Ġà²Ĩà²Łà²ķ": 3784,
      "erv": 3785,
      "Ã©": 3786,
      "olice": 3787,
      "à²ķà²¶": 3788,
      "Ġà²¸à²°à²¹à²¦": 3789,
      "à²ħà²¦à²¨": 3790,
      "à²¨à²¡à²µ": 3791,
      "ĠHD": 3792,
      "ree": 3793,
      "Ġà²¹à²°à²Ł": 3794,
      "Ġà²ķà²¬à²¡": 3795,
      "revious": 3796,
      "à²Ĥ'": 3797,
      "Ġà²¨à²Ĺà²°à²µà²¨": 3798,
      "à²ķà²Łà²°": 3799,
      "Ġcont": 3800,
      "à²ļà²¨à²Ĺ": 3801,
      "300": 3802,
      "Ġà²Ĭà²¦": 3803,
      "ĠRaj": 3804,
      "Ġà²¨à²µà²ľ": 3805,
      "Ġà²¸à²¹à²ª": 3806,
      "à²°à²¡à²¨": 3807,
      "à²Ĳà²¨": 3808,
      "à³įà³į": 3809,
      "Ġà²¯à²µà²°": 3810,
      "Ġà²ĵà²£": 3811,
      "Ġhttps": 3812,
      "à²¡à²Ĺà²³à²²": 3813,
      "à²ªà²Ĺà²³à²²": 3814,
      "Ġà²Ńà²Ĺà²µà²¦": 3815,
      "Ġà²£": 3816,
      "ĠAl": 3817,
      "Ġraj": 3818,
      "à³Ĩ.\"": 3819,
      "ĠÐ½": 3820,
      "Ġà²¸à²¦à²¨à²¦à²²": 3821,
      "Ġà²¨à²²à²ª": 3822,
      "aksh": 3823,
      "India": 3824,
      "à²¨à²³": 3825,
      "ert": 3826,
      "co": 3827,
      "à²µà²¯à²¸": 3828,
      "à³ĭ..": 3829,
      "Ġà²ĸà²Ĺ": 3830,
      "EN": 3831,
      "à²Ĺà²®à²¨": 3832,
      "Ġà²¯à²¦": 3833,
      "Ġà²īà²ªà²¹": 3834,
      "62": 3835,
      "Ġà²²à²¯à²¨": 3836,
      "à²ľà²¨à²Ĺà²³": 3837,
      "à²µà²ļà²¨": 3838,
      "Ġà²¨à²²à²µà²¤": 3839,
      "Ġà²Ĺà²®": 3840,
      "ourt": 3841,
      "2010": 3842,
      "à²°à²µà²µ": 3843,
      "Ġà²Ĺà²£à²ķ": 3844,
      "2008": 3845,
      "Ġà²Ĩà²Łà²µà²¨": 3846,
      "à²¦à²²à²µ": 3847,
      "74": 3848,
      "à³įâĢĭ.": 3849,
      "Ġà³¨à³ª": 3850,
      "span": 3851,
      "à²¤à²¨à²¦à²²": 3852,
      "Ġad": 3853,
      "Ġvide": 3854,
      "='": 3855,
      "Ð·": 3856,
      "à²¦à²°à²¦": 3857,
      "Ġag": 3858,
      "Ġà²Ĵà²¸": 3859,
      "à²°à²µà²²à²¯à²¦": 3860,
      "ran": 3861,
      "à²Łà²°à²¨": 3862,
      "ĠRAM": 3863,
      "à²Ĺà²°à²²": 3864,
      "get": 3865,
      "à³ĨâĢĻâĢĻ": 3866,
      "à²¦à²²à²¦": 3867,
      "à²ķà²°à²£à²¦à²²": 3868,
      "Ġ71": 3869,
      "Ġ05": 3870,
      ":-": 3871,
      "Ġà²ķà²µà²²": 3872,
      "à²£à²²à²ķ": 3873,
      "ema": 3874,
      "'>": 3875,
      "à²²à²¨à²¦": 3876,
      "Ġà²Ĩà²Łà²¦à²²": 3877,
      "raj": 3878,
      "te": 3879,
      "Ġà²ħà²ªà²¹": 3880,
      "Ġà²®à²¦à²¨": 3881,
      "Ġà²ľà²¹": 3882,
      "Ġà²¶à²¹": 3883,
      "priceicon": 3884,
      "Ġà²ħà²µà²¹": 3885,
      "à²Ĩà²®": 3886,
      "led": 3887,
      "à³¨à³ª": 3888,
      "à²¬à²¹à²³": 3889,
      "à²ħà²Ĺ": 3890,
      "Ġà²Ĺà²®à²¨à²¸": 3891,
      "Ġà²ħà²Ĺà²¸": 3892,
      "ndra": 3893,
      "AL": 3894,
      "Ġà²Ĺà²Ĺ": 3895,
      "ool": 3896,
      "Ġà²¸à²§": 3897,
      "Ġà²ħà²ªà²¹à²°à²£": 3898,
      "ĠTh": 3899,
      "].": 3900,
      "bot": 3901,
      "ates": 3902,
      "ital": 3903,
      "Ġarticle": 3904,
      "Ġup": 3905,
      "à²ªà²³à²¦": 3906,
      "à²§à²¦à²·": 3907,
      "à²¤à²°à²ľ": 3908,
      "2012": 3909,
      "à²Łà²ªà²¦à²²": 3910,
      "ĠAm": 3911,
      "Ġà²¤à²Ĺà²²": 3912,
      "à²Ĳà²Ĺ": 3913,
      "à²Ĵà²¨": 3914,
      "Ġsc": 3915,
      "owda": 3916,
      "ivers": 3917,
      "à²ľà²¨à²µà²°": 3918,
      "Ġà²ķà²¨à²ķà²ª": 3919,
      "à³ģ''": 3920,
      "Ġà²ķà²³à²¸": 3921,
      "Ġ62": 3922,
      "ĠEx": 3923,
      "Ġà³ªà³¦": 3924,
      "à²Ĳà²İà²¡": 3925,
      "Ġà²Ĺà²®à²¨à²µà²¨": 3926,
      "95": 3927,
      "âĸ": 3928,
      "Ġà²¤à²ķà²°": 3929,
      "Ġà²¨à²ľ": 3930,
      "à²ķà²°à²ª": 3931,
      "Ġà²ıà²ķà²°": 3932,
      "Ġà²ħà²£à²ķ": 3933,
      "Ġà²Ĵà²³à²ļà²°": 3934,
      "Ġà²®à²łà²¦à²²": 3935,
      "ĠUS": 3936,
      "à²°à²ļà²¨": 3937,
      "aw": 3938,
      "Ġà²ĸà²¡": 3939,
      "Ġ108": 3940,
      "Ġà³¨à³§": 3941,
      "ild": 3942,
      "ident": 3943,
      "Ġà²İà²¡à²ª": 3944,
      "line": 3945,
      "Ġ1998": 3946,
      "à²µà²°à²£à²¦": 3947,
      "à²¬à²°à²¹": 3948,
      "ĠØ": 3949,
      "à²Ĺà²¦à²·": 3950,
      "Ġà²ħà²¸à²¹à²¨": 3951,
      "ON": 3952,
      "à²§à²²": 3953,
      "amp": 3954,
      "à²²à²ķà²°à²µ": 3955,
      "à²³à²¶": 3956,
      "à²®à²¨à²Ĺ": 3957,
      "ond": 3958,
      "à²¤à²¡à²µ": 3959,
      "à²°à²µà²ķ": 3960,
      "Ð¾Ð²": 3961,
      "à²®à²¦à²µà²°": 3962,
      "Ġà²Ķà²°": 3963,
      "à²¨à²Ĺà²²": 3964,
      "à²¬à²²à²Ĺ": 3965,
      "ich": 3966,
      "76": 3967,
      "edia": 3968,
      "Ġà²ľà²²à²®": 3969,
      "Ġà²¬à²°à²®": 3970,
      "ĠâĢį": 3971,
      "à²¸à²¨à²¦à²²": 3972,
      "Ġà²ľà²®à²ĸ": 3973,
      "à²¥à²°à²¨": 3974,
      "à²®à²ķà²¤": 3975,
      "Ò»Ð¤": 3976,
      "br": 3977,
      "Ġà²Ĵà²³à²Ĺà²¡": 3978,
      "Ð¹": 3979,
      "Previous": 3980,
      "à²µà²°à²£à²µà²¨": 3981,
      "à²µà²ķà²°à²¨": 3982,
      "84": 3983,
      "à²²à²¹": 3984,
      "à³įâĢĮ(": 3985,
      "Ġà²ĸà²²": 3986,
      "à²Ĳà²¦": 3987,
      "ĠCAT": 3988,
      "à³ģ[": 3989,
      "à²ĸà²°à²£": 3990,
      "73": 3991,
      "Karnataka": 3992,
      "à²Ĥ-": 3993,
      "ency": 3994,
      "ĠList": 3995,
      "à²®à²¯à²µ": 3996,
      "à²¤à²°à²Ĺà²³à²¨": 3997,
      "Ġ1500": 3998,
      "à²ľà²¯à²²à²ķ": 3999,
      "Ê²": 4000,
      "à³įà²¿": 4001,
      "à²®à²¬": 4002,
      "à²Ńà²£": 4003,
      "Ġà²¹à²£à²¦à²²": 4004,
      "à²µà²ľà²¨à²°": 4005,
      "à²Łà²¡à²¦à²²": 4006,
      "à²Ĺà²°à²¤": 4007,
      "Ġà²ľà²¯à²ª": 4008,
      "Ġà²¶à²µà²µà²¨": 4009,
      "Ġà³§à³¯à³¬": 4010,
      "à²¬à²¸à²ª": 4011,
      "à²£à²ªà²¡": 4012,
      "à²ªà²¦à²Ĺà²³": 4013,
      "à¤¿": 4014,
      "Ġà²Īà²¦": 4015,
      "à²³à²®": 4016,
      "à²°à²¹à²Ĺà²³à²¨": 4017,
      "Ġ94": 4018,
      "Ġus": 4019,
      "à²³à²ķà²¨": 4020,
      "ement": 4021,
      "TC": 4022,
      "à²®à²¨à²µà²°": 4023,
      "ĠMan": 4024,
      "à²ĭà²¤": 4025,
      "ian": 4026,
      "izbot": 4027,
      "à²Łà²Ĺà²°": 4028,
      "Ġ07": 4029,
      "à²İà²£": 4030,
      "arendra": 4031,
      "à²°à²µà²µà²¨": 4032,
      "83": 4033,
      "ode": 4034,
      "Ġà²Ńà²°à²¤à²¨": 4035,
      "à²¯à²³": 4036,
      "Ê²Ã´": 4037,
      "à²¦à²¯à²ķ": 4038,
      "Ġde": 4039,
      "Ġx": 4040,
      "Ġqu": 4041,
      "ors": 4042,
      "able": 4043,
      "eptember": 4044,
      "à²¿à²Ĥ,": 4045,
      "71": 4046,
      "ĠQ": 4047,
      "à²łà²µà²¨": 4048,
      "à²ıà²ª": 4049,
      ");": 4050,
      "ove": 4051,
      "ricket": 4052,
      "ral": 4053,
      "à²Ńà²µà²¨à²¦à²²": 4054,
      "à²ľà²¨à²¨": 4055,
      "Ġà²Ĭà²°à²²": 4056,
      "pe": 4057,
      "Ġ350": 4058,
      "orld": 4059,
      "à²°à²µà²£à²¬": 4060,
      "Ð¿": 4061,
      "à³¨à³§": 4062,
      "à²ļà²Ĺà²³": 4063,
      "Ġà²ħà²¸à²®à²°": 4064,
      "ĠGoogle": 4065,
      "Ġoff": 4066,
      "à²¾âĢĿ": 4067,
      "à²¿.)": 4068,
      "82": 4069,
      "OR": 4070,
      "Ġ!!!": 4071,
      "Ġà²¦à²¸": 4072,
      "à²°à²ķà²¦": 4073,
      "Ġop": 4074,
      "inema": 4075,
      "olly": 4076,
      "Ġà²¹à²Ĺà²°à²£à²¦": 4077,
      "63": 4078,
      "à²Ĺà²°à²µ": 4079,
      "à²Ńà²§": 4080,
      "int": 4081,
      "Ġman": 4082,
      "à²Ĺà²¤à²µ": 4083,
      "Ġà²Ĩà²µà²¶": 4084,
      "à²ħà²ªà²°": 4085,
      "MP": 4086,
      "Ġ81": 4087,
      "à³¨à³®": 4088,
      "Ġà²¹à²²à²Ĺ": 4089,
      "]:": 4090,
      "la": 4091,
      "Ġ67": 4092,
      "olog": 4093,
      "Ġte": 4094,
      "à²µà²ľà²¨à²¤": 4095,
      "Ġà²¨à²¯à²¨": 4096,
      "à³ĭ!": 4097,
      "Ġà²¤à²µà²ķ": 4098,
      "à³ĭ:": 4099,
      "à²·à²¬": 4100,
      "Ġà²ľà²µà²³": 4101,
      "à²¿à¥¤": 4102,
      "Ġà²«à²ķ": 4103,
      "à²ħà²¦à²°à²²": 4104,
      "à²¬à²Ĺà²³à²¨": 4105,
      "à²ªà²¨à²¨": 4106,
      "à²·à²Ĺà²³à²µà²°": 4107,
      "Ġà²ħà²¸à²Ń": 4108,
      "Ġà²ĸà²³à²¨": 4109,
      "à²µà²£à²¨": 4110,
      "Ġ||": 4111,
      "à²Ńà²¨": 4112,
      "Ġmovie": 4113,
      "Â°": 4114,
      "Ġà²¸à²¡à²Ĺà²°": 4115,
      "à³į).": 4116,
      "atch": 4117,
      "à²ķà²¹": 4118,
      "à²ªà²¬à²¹": 4119,
      "Ġà²ıà²¸": 4120,
      "à²Ĺà²£à²¤": 4121,
      "à²§à²¨à²¦à²²": 4122,
      "Ġ73": 4123,
      "igg": 4124,
      "ES": 4125,
      "Ġà²¬à²²à²ª": 4126,
      ".)": 4127,
      "ĠÙ": 4128,
      "à²İà²¦": 4129,
      "à²°à²³à²ķ": 4130,
      "61": 4131,
      "AD": 4132,
      "800": 4133,
      "IV": 4134,
      "à³ģ.âĢĿ": 4135,
      "Ġ1990": 4136,
      "àµ": 4137,
      "ale": 4138,
      "ĠGizbot": 4139,
      "karnataka": 4140,
      "à³¨à³©": 4141,
      "Ġ02": 4142,
      "Ġres": 4143,
      "à²¯à²Ł": 4144,
      "à²Łà²¡à²µ": 4145,
      "600": 4146,
      "à²İà²Ł": 4147,
      "oon": 4148,
      "Ġ95": 4149,
      "Ġà²°à²¸à²¦": 4150,
      "adi": 4151,
      "à²Łà²ķà²°à²µ": 4152,
      "à²®à²ķà²¥": 4153,
      "à²¢à²ªà²¡": 4154,
      "ollywood": 4155,
      "à³Ĩ.....": 4156,
      "Ġà²Ĺà²¸": 4157,
      "Ø±": 4158,
      "à²°à²¹à²³": 4159,
      "AC": 4160,
      "à²¯à²£à²¦": 4161,
      "Ġà²ĵà²¦à²¬": 4162,
      "Ġà²Ķà²¦": 4163,
      "ĠRag": 4164,
      "à²Ńà²ª": 4165,
      "ĠYou": 4166,
      "à¯į": 4167,
      "rit": 4168,
      "à²¯à²¦à²¨": 4169,
      "à²²à²Ńà²µà²²": 4170,
      "ĠModi": 4171,
      "Ġà²Ľà²²": 4172,
      "à²łà²¦à²²": 4173,
      "à²·à²£à²Ĺà²³à²²": 4174,
      "ions": 4175,
      "Ġà²¶à²°à²£à²ª": 4176,
      "gl": 4177,
      "à²®à²¦à²°": 4178,
      "ĠÐ¸": 4179,
      "Ġï¿½ï¿½ï¿½ï¿½ï¿½": 4180,
      "à²°à²¡à²²": 4181,
      "Ġà²ªà²³à²Ĺ": 4182,
      "à²ľà²¨à²ª": 4183,
      "Ġà²ħà²°à²¸à²°": 4184,
      "Ġà²¤à²²à²ª": 4185,
      "à²®à²¤à²µ": 4186,
      "hav": 4187,
      "à²Ńà²µà²Ĺ": 4188,
      "ĠMay": 4189,
      "ĠYeddyurappa": 4190,
      "rish": 4191,
      "Ġz": 4192,
      "Ġà²ĩà²£": 4193,
      "à²°à²µà²ļà²¨": 4194,
      "à²¹à²¸à²ķ": 4195,
      "Ġà²«à²²à²µà²¤": 4196,
      "Ġà²¿": 4197,
      "https": 4198,
      "ual": 4199,
      "à²²à²£": 4200,
      "à²Ĺà²§": 4201,
      "à²Ĩà²¶": 4202,
      "98": 4203,
      "à²İà²İà²²": 4204,
      "Ġà²ķà²°à²ķ": 4205,
      "à²Ĺà²¦à²¦": 4206,
      "Ġà²İà²°à²¡à²°": 4207,
      "Ġ74": 4208,
      "à²īà²Ĺ": 4209,
      "à²²à²ļ": 4210,
      "à²Ĩà²¡à²³": 4211,
      "ras": 4212,
      "à³¨à³¬": 4213,
      "à²łà²Ĺà²³": 4214,
      "ĠTe": 4215,
      "cl": 4216,
      "Ġà²ĺà²Łà²ķà²¦à²²": 4217,
      "apura": 4218,
      "Ð±": 4219,
      "à²µà²¬": 4220,
      "Ġà²ªà²¸à²°": 4221,
      "à³ģ.....": 4222,
      "Ãł": 4223,
      "Ġà²ħà²ķà²¸": 4224,
      "Ġit": 4225,
      "à²¡à²°à²²": 4226,
      "Ġà²¹à²ª": 4227,
      "Ġ110": 4228,
      "à³ģ..?": 4229,
      "ja": 4230,
      "Ġro": 4231,
      "Ġà³¨à³®": 4232,
      "Ġ03": 4233,
      "Dek": 4234,
      "ĠCM": 4235,
      "à²¿âĢĻ,": 4236,
      "Ġà²ħà²¹à²µ": 4237,
      "à²¥à²¸": 4238,
      "Dekho": 4239,
      "à²Ńà²Ĺà²µ": 4240,
      "à²¦à²Ĺà²³à²²": 4241,
      "Ġà²Ĩà²¯à²¸": 4242,
      "à²¯à²¯à²¨à²µ": 4243,
      "Ġà³§à³¦à³¦": 4244,
      "à²¯à²¹": 4245,
      "à²ĩà²ª": 4246,
      "ĠAct": 4247,
      "ĠPriceDekho": 4248,
      "Ġà²µà²°à²¦à²ķ": 4249,
      "à¥ĩ": 4250,
      "à²¾ÂŃ": 4251,
      "à²ĩà²¤à²°": 4252,
      "ĠTV": 4253,
      "à³įâĢĮ\"": 4254,
      "Ġà²Ĵà²¡à²²": 4255,
      "Ġà²Ĩà²µà²°à²£à²¦": 4256,
      "ward": 4257,
      "à²¤à²ļ": 4258,
      "Ġà²ĩà²¯à²°": 4259,
      "Ġà²ľà²ķ": 4260,
      "Ġà²ħà²¨à²ķ": 4261,
      "arm": 4262,
      "Ġà²¨à²¯à²µ": 4263,
      "à²¨à²Ĺà²³à²µà²°": 4264,
      "Ġà²¬à²¸à²µà²¨à²Ĺ": 4265,
      "à²®à²²à²¤": 4266,
      "ĠApp": 4267,
      ".âĢĿ": 4268,
      "Ġall": 4269,
      "à²ªà²ķà²²": 4270,
      "à²¹à²ķà²¨": 4271,
      "Ġà²Ĵà²¡à²µ": 4272,
      "Ġà²·à²¡": 4273,
      "à²£à²¨à²¨": 4274,
      "Ġ77": 4275,
      "Ġthat": 4276,
      "à²Ĺà²£à²ªà²¤": 4277,
      "illage": 4278,
      "à²§à²Ĺà²³à²²": 4279,
      "à²µà²¤à²Ĺà²³": 4280,
      "____": 4281,
      "Ġà²ļà²°à²£": 4282,
      "ated": 4283,
      "ations": 4284,
      "à²ľà²¯à²µ": 4285,
      "à²¥à²³à²Ĺà²³à²¨": 4286,
      "à²ıà²·": 4287,
      "mail": 4288,
      "Ġà²ħà²µà²¸": 4289,
      "ict": 4290,
      "ĠMar": 4291,
      "||": 4292,
      "à²®à²°à²¨": 4293,
      "Ġà²Ĩà²Ńà²°à²£à²Ĺà²³": 4294,
      "uv": 4295,
      "Ê½": 4296,
      "ĠTo": 4297,
      "ĠThats": 4298,
      "à¥¤à¥¤": 4299,
      "Ġ04": 4300,
      "Ġà²Ĳà²²": 4301,
      "à²¸à²¯": 4302,
      "à²Łà²°à²®à²Ł": 4303,
      "Ġà²¦à²°à²¦": 4304,
      "2007": 4305,
      "ä¸": 4306,
      "à¥Ģ": 4307,
      "æľ": 4308,
      "à²Łà²ķà²Ĺà²³à²¨": 4309,
      "à¤¨": 4310,
      "Ġà²®à²¡à²¦": 4311,
      "Ġà²ıà²ķà²®": 4312,
      "à²Ĵà²¡": 4313,
      "Ġà³¨à³¬": 4314,
      "Ġà²ľà²¨à²Ĺà²³": 4315,
      "à²¡à²¬à²³": 4316,
      "ings": 4317,
      "lood": 4318,
      "Ġà²¤à²°à²¦": 4319,
      "ĠBengaluru": 4320,
      "ĠThatsKannada": 4321,
      "âĢ¢": 4322,
      "Ġà²Ĵà²³à²Ń": 4323,
      "Next": 4324,
      "à³©à³¨": 4325,
      "à²Ĩà²Ł": 4326,
      "ife": 4327,
      "Ġà²Ĵà²°à²Ł": 4328,
      "eri": 4329,
      "Ġ82": 4330,
      "Ġà²ĺà²Łà²ķà²Ĺà²³à²¨": 4331,
      "Ġà²¸à²¹à²µ": 4332,
      "app": 4333,
      "Ġà²ħà²µà²ĺà²¡": 4334,
      "à²¯à²§à²¨": 4335,
      "Ġ79": 4336,
      "ĠAd": 4337,
      "Ġà²®à²łà²Ĺà²³": 4338,
      "à³Ĥ.,": 4339,
      "à²¡à²µà²ª": 4340,
      "2009": 4341,
      "Ġ76": 4342,
      "Ġ98": 4343,
      "à²°à²µà²·": 4344,
      "à²µà²¥": 4345,
      "à²°à²£à²¬": 4346,
      "anna": 4347,
      "Ġ84": 4348,
      "Ġà²µà²²à²¯à²Ĺà²³": 4349,
      "à²°à²µà²²à²¯à²¦à²²": 4350,
      "Ġà²ķà²²à²¸": 4351,
      "lan": 4352,
      "à²ķà²ªà²Ł": 4353,
      "ĠFl": 4354,
      "à²§à²ķà²Ĺà²³": 4355,
      "à²Ĺà²µà²²": 4356,
      "Ġ2020": 4357,
      "Ġyour": 4358,
      "Ġà²ĺà²¡": 4359,
      "Ġthis": 4360,
      "ID": 4361,
      "Ġ1980": 4362,
      "Ġà³¨à³©": 4363,
      "Ġà²īà²ªà²ķà²°à²£à²Ĺà²³à²¨": 4364,
      "Ġà²ħà²¦à²°à²¦": 4365,
      "PR": 4366,
      "à²¨à²¯à²¨": 4367,
      "à²³à²¹": 4368,
      "Ġà²¬à²¦à²¨": 4369,
      "à²İà²¤": 4370,
      "stitu": 4371,
      "ĠAss": 4372,
      "oft": 4373,
      "Ġhas": 4374,
      "à²ĵà²¦": 4375,
      "Ġ1996": 4376,
      "700": 4377,
      "rad": 4378,
      "Ġà²ľà²¨à²Ĺà²£à²¤": 4379,
      "Ġà²ıà²°à²²": 4380,
      "à²°à²¹à²¦à²²": 4381,
      "ĠRoad": 4382,
      "CC": 4383,
      "to": 4384,
      "2019": 4385,
      "les": 4386,
      "à³į]": 4387,
      "Ġ61": 4388,
      "ks": 4389,
      "à³Ģ-": 4390,
      "araj": 4391,
      "Ñħ": 4392,
      "à³įà²Ĥ": 4393,
      "à²Ĺà²³à²ķ": 4394,
      "Ġà²Ńà²Ĺà²¤": 4395,
      "à³Ĩà²Ĥ,": 4396,
      "à³Ńà³¦": 4397,
      "'.": 4398,
      "Ġà²¸à²°à²ªà²³": 4399,
      "à²²à²ķà²¨à²¨": 4400,
      "Ġ86": 4401,
      "BN": 4402,
      "The": 4403,
      "Ġà²²à²¹à²°": 4404,
      "à²²à²¸à²Ĺà²³à²²": 4405,
      "à²¸à²µà²µ": 4406,
      "à²²à²§": 4407,
      "à³Ĩ.!": 4408,
      "Ġà²Ĺà²®à²¨à²µ": 4409,
      "Ġà²¸à²Ĺ": 4410,
      "Ġà²¦à²°à²µ": 4411,
      "oh": 4412,
      "à²¨à²µà²²": 4413,
      "Ġà²§à²®": 4414,
      "à³Ĩ!!": 4415,
      "à²Łà²¡à²µà²¨": 4416,
      "ÑĢÐµ": 4417,
      "ific": 4418,
      "lli": 4419,
      "Ġà²Ĩà²·": 4420,
      "à²¤à²°à²ķà²°": 4421,
      "à²¦à²¨à²ķ": 4422,
      "à²µà²³à²¦": 4423,
      "à²¡à²°à²°": 4424,
      "Ġà²¦à²µà²°": 4425,
      "ĠKumaraswamy": 4426,
      "ĠFor": 4427,
      "Ġà²ĩà²Ĺ": 4428,
      "à²°à²¦à²·": 4429,
      "à³į):": 4430,
      "à²§à²¨à²Ĺà²³à²¨": 4431,
      "à²¯à²ªà²²": 4432,
      "ĠCon": 4433,
      "Ġcan": 4434,
      "Ġà³§à³¯à³ª": 4435,
      "à²ļà²°à²°": 4436,
      "rav": 4437,
      "Ġà²µà²ļà²¨à²Ĺà²³": 4438,
      "Ġà²²à²¡": 4439,
      "à²¢à²¤": 4440,
      "ĠNat": 4441,
      "Ġ!!": 4442,
      "Ġà²¬à²²à²ķ": 4443,
      "à²¿à³ķà²Ĥ": 4444,
      "mi": 4445,
      "oor": 4446,
      "à²ĸà²®": 4447,
      "à²·à²Ĺà²³à²·": 4448,
      "à³Ĩ..?": 4449,
      "à²²à²¬à²¹": 4450,
      "à²¡à²¨à²¨": 4451,
      "urn": 4452,
      "97": 4453,
      "AS": 4454,
      "à¸": 4455,
      "à²Łà²¬à²¹": 4456,
      "Ġà²ķà²¯": 4457,
      "à²¨à²µà²³": 4458,
      "evi": 4459,
      "Ġà²ħà²°à²µà²¤": 4460,
      "Ġà²¨à²¬": 4461,
      "Ġcol": 4462,
      "Ġpost": 4463,
      "Ġà²ħà²Ĺà²²à²µ": 4464,
      "Ġà²¸à²«à²²à²µ": 4465,
      "à³įâĢĮâĢį": 4466,
      "à²³à²Ĺà²¡": 4467,
      "à³¨à³Ń": 4468,
      "à³ģ.\"": 4469,
      "Ġgovernment": 4470,
      "à³Ĩà³Ĩ": 4471,
      "à²Łà²£à²ķ": 4472,
      "à²ķà²²à²ļ": 4473,
      "Ġà²ħà²ªà²ª": 4474,
      "à²¼à³į": 4475,
      "ds": 4476,
      "vk": 4477,
      "Ġà²İà²Ĳà²İà²¡": 4478,
      "à²°à²¡à²°": 4479,
      "È«": 4480,
      "Ë®": 4481,
      "à²ĩà²İà²¸": 4482,
      "à²²à²¨à²ķ": 4483,
      "Ġà³¨à³¦à³§à³ª": 4484,
      "à²¹à²¨à²ķ": 4485,
      "Ġnew": 4486,
      "\".": 4487,
      "à²°à²ªà²¡": 4488,
      "Ġà²Łà²ķ": 4489,
      "à³¨à³¯": 4490,
      "ĠGB": 4491,
      "Ġà²°à²£à²¬": 4492,
      "Ġà²ķà²¨à²ķ": 4493,
      "Ġà²Ĳà²Ĳà²Ł": 4494,
      "editor": 4495,
      "stituency": 4496,
      "à³ĭ'": 4497,
      "à²¦à²°à²·": 4498,
      "Ġà²ªà²°à²ª": 4499,
      "itt": 4500,
      "ĠâĤ¬": 4501,
      "Ġà²İà²¡à²µà²Ł": 4502,
      "96": 4503,
      "à³ĩâĢ¦": 4504,
      "à²°à²¦à²ķ": 4505,
      "Ġ130": 4506,
      "à²¶à²ķà²¤": 4507,
      "Ġ180": 4508,
      "à²ªà²ķà²°à²£à²Ĺà²³": 4509,
      "bo": 4510,
      "93": 4511,
      "à²¸à²¨à²Ĺà²³": 4512,
      "Ġà²²à²¯": 4513,
      "Ġpre": 4514,
      "amil": 4515,
      "vknews": 4516,
      "à²¿]": 4517,
      "à²¦à²¯à²¦à²²": 4518,
      "à²¨à²ļ": 4519,
      "az": 4520,
      "Ð¶": 4521,
      "à²Ĺà²¨à²¨": 4522,
      "Ġà²ħà²°à²ķ": 4523,
      "Ãĩ": 4524,
      "à²Ĺà²¡à²Ĺà²³": 4525,
      "à²Ĺà²¡à²£": 4526,
      "à²µà²ķà²¨à²¨": 4527,
      "Ġà³¨à³¯": 4528,
      "?)": 4529,
      "Ġim": 4530,
      "à²µà²¤à²®": 4531,
      "......": 4532,
      "ĠPM": 4533,
      "ism": 4534,
      "Ġà²¯à²²à²¹": 4535,
      "à²¯à²Ĺà²¤à²Ĺ": 4536,
      "ĠĠĠĠ": 4537,
      "ĠOff": 4538,
      "Ġwork": 4539,
      "à³Ĩ..!": 4540,
      "Ġà²Ķà²·à²§à²Ĺà²³": 4541,
      "ublic": 4542,
      "IS": 4543,
      "sc": 4544,
      "ï¼": 4545,
      "anth": 4546,
      "Ġà²ķà²¥à²¨": 4547,
      "Ġen": 4548,
      "à²ķà²°à²Ĺà²³": 4549,
      "2006": 4550,
      "Ġà²¸à²¶à²¸": 4551,
      "à³®à³¦": 4552,
      "Ġà²İà²Ĺ": 4553,
      "Ġcinema": 4554,
      "à²¯à²£à²¨": 4555,
      "ents": 4556,
      "annadada": 4557,
      "à²ľà²¬": 4558,
      "à²ļà²ķà²µ": 4559,
      "à²°à²¹à²£à²¦": 4560,
      "Ġ88": 4561,
      "ower": 4562,
      "Ġ1994": 4563,
      "à²¬à²¸à²µà²°": 4564,
      "ave": 4565,
      "à²§à²¨à²¨": 4566,
      "Ġà²ĩà²µà²°à²¦": 4567,
      "à²¹à²¡": 4568,
      "Ġà²¯à²¹": 4569,
      "Ġà²®à²¨à²¬": 4570,
      "à²¸à²¨à²Ĺ": 4571,
      "à²Łà²¡à²Ĺà²³à²¨": 4572,
      "ush": 4573,
      "ysuru": 4574,
      "air": 4575,
      "Ġà²µà²¶": 4576,
      "à²°à²®à²µà²¹": 4577,
      "à²¯à²¸à²¨": 4578,
      "à¤¤": 4579,
      "81": 4580,
      "900": 4581,
      "EL": 4582,
      "ft": 4583,
      "à²°à²ķà²ķ": 4584,
      "Ġ83": 4585,
      "chool": 4586,
      "à³ĩ-": 4587,
      "Ġà²¨à²µà²²": 4588,
      "ĠSri": 4589,
      "à²ªà²ķà²¨": 4590,
      "Ġà²ľà²ĸ": 4591,
      "à²¤à²²à²²": 4592,
      "Editor": 4593,
      "Ġà²Ńà²°à²¦à²²": 4594,
      "Ġà²¹à²«": 4595,
      "Ġà²°à²£à²ľ": 4596,
      "à²«à²²à²ķ": 4597,
      "à²µà²¤à²¦": 4598,
      "Ġapp": 4599,
      "âĢĭâĢĭâĢĭâĢĭ": 4600,
      "ote": 4601,
      "ĠÐ¾": 4602,
      "à²¨à²¯à²ķ": 4603,
      "à²¸à²¤à²ķ": 4604,
      "à²ªà²µà²°": 4605,
      "Ġà²İà²¨à²°": 4606,
      "Ġà²ķà²¨à²ķà²¦": 4607,
      "Ġà³§à³¯à³«": 4608,
      "Ġà²Ĳà²ľ": 4609,
      "à²ķà²Łà²ª": 4610,
      "ĠShiv": 4611,
      "ĠSeptember": 4612,
      "raz": 4613,
      "ÑĤÐµ": 4614,
      "ĠâĻ°": 4615,
      "Ġà²Ńà²¸": 4616,
      "à²İà²Ĳ": 4617,
      "Ġà³¨à³¦à³§à³®": 4618,
      "view": 4619,
      "à³©à³¬": 4620,
      "Ġà²ħà²¹à²®": 4621,
      "à²łà²ª": 4622,
      "à²¶à²¦à²µà²°": 4623,
      "Ġà³¨à³Ń": 4624,
      "PS": 4625,
      "ax": 4626,
      "à²¨à²ļà²°": 4627,
      "Ġà²®à²ķà²°": 4628,
      "à²¹à²£à²ķ": 4629,
      "emple": 4630,
      "à²·à²°à²¸": 4631,
      "Ġà²Ĩà²ªà²¤": 4632,
      "Ġà²ĵà²Łà²¦": 4633,
      "à²¯à²£à²°": 4634,
      "à²Łà²£à²Ĺà²³": 4635,
      "à²ªà²¨à²¦": 4636,
      "à²·à²°à²¦": 4637,
      "à³į',": 4638,
      "Ġà²¬à²¨à²¶": 4639,
      "udeep": 4640,
      "ĠBS": 4641,
      "à²¦à²³à²¦": 4642,
      "à²Ĭà²°": 4643,
      "à³Ĩ.âĢĻ": 4644,
      "Ġà²ªà²°à²Ń": 4645,
      "à²ķà²Łà²µ": 4646,
      "Ġse": 4647,
      "Ġà²¸à²°à²³à²¤": 4648,
      "ound": 4649,
      "Ãī": 4650,
      "à²¨à²ķà²²": 4651,
      "à²Ńà²Ĺà²³à²¨": 4652,
      "Ġà²¬à²°à²¹à²¦": 4653,
      "à²ķà²³à²¦": 4654,
      "à³įâĢĻ,": 4655,
      "comEditor": 4656,
      "Ġà²®à²¨à²¦à²Ł": 4657,
      "à²¹à²¨à²Ĺà²³à²²": 4658,
      "irst": 4659,
      "Ġrec": 4660,
      ".!": 4661,
      "à³ģ!!": 4662,
      "Ġà²ľà²Ĺà²ľ": 4663,
      "endra": 4664,
      "Ġà²¬à²µà²£": 4665,
      "ins": 4666,
      "à³©à³¯": 4667,
      "Ġdi": 4668,
      "Ġ160": 4669,
      "94": 4670,
      "uth": 4671,
      "Ġà²¯à²¡à²µ": 4672,
      "Ġà²²à²Ĺà²¤": 4673,
      "à²ľà²ķà²¤": 4674,
      "à³©à³«": 4675,
      "Ġ140": 4676,
      "appa": 4677,
      "à²īà²®": 4678,
      "ĠAug": 4679,
      "à³¬à³¦": 4680,
      "Ġà²®à²®": 4681,
      "Ġà²ķà²²à²ķ": 4682,
      "à²¥à²Ĺà²³à²²": 4683,
      "stru": 4684,
      "odel": 4685,
      "à²µà²¦à²ķ": 4686,
      "à²Ĩà²¡": 4687,
      "ĠBP": 4688,
      "à³©à³§": 4689,
      "91": 4690,
      "Ð³": 4691,
      "Ġà²¸à²µà²¦": 4692,
      "Ġà²ıà²¤": 4693,
      "Ġà²ľà²°à²Ĺ": 4694,
      "Ġà²İà²°à²¡à²°à²²": 4695,
      "ille": 4696,
      "à²¦à²Ł": 4697,
      "Ġà²¦à²¨à²Ĺà²³": 4698,
      "à³ĪâĢĻ": 4699,
      "Ġà²ľà²¨à²®": 4700,
      "Ġà²ħà²µà²¨à²¤": 4701,
      "ĠSiddaramaiah": 4702,
      "ĠAnd": 4703,
      "day": 4704,
      "Ġ104": 4705,
      "Ġà²ħà²°à²Ĺ": 4706,
      "à³ĩ'": 4707,
      "Ġ:-": 4708,
      "Ð¾ÑĢ": 4709,
      "à²²à²ľà²¨": 4710,
      "ĠDr": 4711,
      "ĠMP": 4712,
      "Ġpro": 4713,
      "à²¯à²¥": 4714,
      "Ġà²ªà²¦à²ķà²Ĺà²³à²¨": 4715,
      "ĠJan": 4716,
      "Indian": 4717,
      "Ġà²Ĺà²£à²¤": 4718,
      "Ġà³¨à³¨": 4719,
      "à²ķà²Łà²ķ": 4720,
      "Ġà²¸à²°à²¤": 4721,
      "à³Ĭ:": 4722,
      "ĠIndian": 4723,
      "à²¿..!": 4724,
      "ini": 4725,
      "à³§à³§à³": 4726,
      "ED": 4727,
      "à²«à²²à²Ĺ": 4728,
      "à³į.,": 4729,
      "UR": 4730,
      "à²°à²³à²¬": 4731,
      "à²°à²³à²ļ": 4732,
      "à²¬à²³à²¦": 4733,
      "uly": 4734,
      "à²ľà²¯à²¨à²Ĺà²°à²¦": 4735,
      "\":": 4736,
      "Ġà²ªà²ļ": 4737,
      "à²¬à²ļ": 4738,
      "Ġà²İà²³à²¨": 4739,
      "à²¡à²Ĺà²Ł": 4740,
      "à²¬à²²à²°": 4741,
      "Ġà²İà²İà²¸": 4742,
      "Ġà²¬à²¸à²µà²¨": 4743,
      "Ġdis": 4744,
      "hett": 4745,
      "Ġï¿½ï¿½ï¿½ï¿½ï¿½ï¿½ï¿½ï¿½": 4746,
      "act": 4747,
      "à²µà²¶à²ķ": 4748,
      "Ġà²ľà²¯à²Ń": 4749,
      "ount": 4750,
      "Ġà²µà²²à²¯à²Ĺà²³à²²": 4751,
      "ĠISBN": 4752,
      "annadadalli": 4753,
      "à²£à²µà²²": 4754,
      "à²ľà²Ĺà²¦": 4755,
      "Ġcomm": 4756,
      "Ġà²Ĩà²Ĺà²¤": 4757,
      "alk": 4758,
      "Ġà²¤à²Łà²¸": 4759,
      "Æ½": 4760,
      "Ġà²¡à²°": 4761,
      "ĠÐº": 4762,
      "à²¦à²ªà²¡": 4763,
      "à²¥à²ķà²µ": 4764,
      "à²¯à²£à²ª": 4765,
      "Ġdr": 4766,
      "ET": 4767,
      "Ġà²¬à²°à²¤": 4768,
      "à²ĸà²Ĺà²³à²¨": 4769,
      "à²µà²ľà²µà²¨": 4770,
      "uss": 4771,
      "Ġ5000": 4772,
      "ĠSc": 4773,
      "à²ķà²°à²¦": 4774,
      "à²¨à²¡à²ªà²°": 4775,
      "Ġà²ħà²ªà²¸": 4776,
      "Ġshiv": 4777,
      "Ġkumaraswamy": 4778,
      "ĠPl": 4779,
      "à²¬à²Ĺà²³à²²": 4780,
      "à²¶à²¶": 4781,
      "Ġà²ıà²ķà²µ": 4782,
      "ung": 4783,
      "à²¶à²¯à²ķ": 4784,
      "à²¶à²ķà²µ": 4785,
      "Ġacc": 4786,
      "Ġinter": 4787,
      "âĸ¬": 4788,
      "à³ģâĢĻâĢĻ": 4789,
      "upee": 4790,
      "Ġà²Ĺà²Ĺà²¨à²ķ": 4791,
      "Ġà²¤à²¸": 4792,
      ",âĢĿ": 4793,
      "à²¸à²ĸ": 4794,
      "à²§à²ª": 4795,
      "à²ªà²¦à²¡": 4796,
      "net": 4797,
      "à²¿',": 4798,
      "à²ļà²°à²¦": 4799,
      "à²ļà²³à²¦": 4800,
      "Ġà²¯à²²à²¬": 4801,
      "à²¤à²¨à²°": 4802,
      "à²ĺà²Łà²ķà²°": 4803,
      "à²¶à²¨à²¨": 4804,
      "atest": 4805,
      "Ġà²ıà²¶": 4806,
      "Ġhave": 4807,
      "Ġà²ĵà²µ": 4808,
      "à²¶à²ķà²Ĺà²³": 4809,
      "Ġ87": 4810,
      "à³ģâĢĻ,": 4811,
      "Ġbengaluru": 4812,
      "Ġdev": 4813,
      "à³Ĥ)": 4814,
      "à²£à²¯à²µà²¨": 4815,
      "à³ģ,âĢĿ": 4816,
      "Ġà²ħà²µà²¨à²²": 4817,
      "à³ªà³«": 4818,
      "à²¤à²¡à²¦à²²": 4819,
      "other": 4820,
      "Ġà²Ĺà²¬": 4821,
      "à²ĸà²¨à²µ": 4822,
      "Ġà²¤à²³à²¹à²¦": 4823,
      "avi": 4824,
      "Ġà³¬à³¦": 4825,
      "book": 4826,
      "rol": 4827,
      "à³Ĩ[": 4828,
      "à²Ĺà²ļ": 4829,
      "Ġà²¬à²¡à²µ": 4830,
      "à²ľà²¨à²µà²¨": 4831,
      "Ġsup": 4832,
      "92": 4833,
      "à²ļà²¯à²¦": 4834,
      "Ġà²®à²¹à²¨": 4835,
      "ĠCol": 4836,
      "avani": 4837,
      "à³ģâĢ¦.": 4838,
      "à³§à³¯à³¯": 4839,
      "Ġà²¹à²µà²£": 4840,
      "à²ħà²°à²£": 4841,
      "By": 4842,
      "Ġà²Ĩà²³à²¦": 4843,
      "à²¶à²£": 4844,
      "de": 4845,
      "à²¯à²¯à²µ": 4846,
      "à²·à²°à²Ĺà²³à²¨": 4847,
      "Ġà²Īà²¤à²¨à²¨": 4848,
      "à²Ĳà²İà²²": 4849,
      "ally": 4850,
      "à²°à²ĺ": 4851,
      "ÐµÐ½": 4852,
      "à²µà²°à²¸": 4853,
      "à²¯à²µà²¶": 4854,
      "Ġà²Ķà²ªà²ļ": 4855,
      "ingh": 4856,
      "Ġcr": 4857,
      "Ġà²¦à²®à²¨": 4858,
      "Ġday": 4859,
      "à²¸à²¦à²¨": 4860,
      "Ġ101": 4861,
      "Ġagain": 4862,
      "Ġà²°à²Ńà²¸à²ķ": 4863,
      "à²¬à²³à²Ĺ": 4864,
      "à²¦à²°à²ķ": 4865,
      "Ġà²ĺà²Łà²ķà²µ": 4866,
      "à²¦à²°à²¤": 4867,
      "Ġà²Ĩà²¦à²²": 4868,
      "Ġà²İà²°à²ļ": 4869,
      "à²Ńà²µà²¨à²¦": 4870,
      "amb": 4871,
      "Ġà²¦à²¶à²ķà²Ĺà²³à²²": 4872,
      "Ġget": 4873,
      "à³ĨâĢ¦.": 4874,
      "eh": 4875,
      "à²£à²¶": 4876,
      "Ġà²µà²¶à²¦à²²": 4877,
      "Ġà²ħà²£à²¬": 4878,
      "à²Łà²¡à²ķ": 4879,
      "Ġà²ħà²ľà²°": 4880,
      "Ġà²µà²²à²¯à²ķ": 4881,
      "à²¬à²³à²¨": 4882,
      "Ġpart": 4883,
      "Ġà²¬à²°à²¹à²Ĺà²³à²¨": 4884,
      "Ġ1997": 4885,
      "ology": 4886,
      "ull": 4887,
      "à²ķà²¨à²¨": 4888,
      "Ġ3000": 4889,
      "à²¨à²¦à²¨": 4890,
      "Ġà²®à²¥": 4891,
      "Ġ89": 4892,
      "ãģ®": 4893,
      "ike": 4894,
      "Ġsu": 4895,
      "à²±": 4896,
      "ĠSha": 4897,
      "ĠPost": 4898,
      "à²¾?âĢĻ": 4899,
      "à³ĨÂŃ": 4900,
      "à²¨à²ľ": 4901,
      "à²ķà²Ĺà²³à²²": 4902,
      "ĠRupee": 4903,
      "ĠII": 4904,
      "ÑĨ": 4905,
      "à²¤à²Ł": 4906,
      "Ġà²Īà²µ": 4907,
      "à²İà²İà²¸": 4908,
      "ĠSup": 4909,
      "à²¸à²°à²£": 4910,
      "à²¸à²¤à²¨": 4911,
      "ational": 4912,
      "à²¤à²¡à²Ĺà²³": 4913,
      "hip": 4914,
      "Ġà²Ĩà²ķà²³": 4915,
      "à²¯à²ķà²²": 4916,
      "à²Ĩà²ªà²°": 4917,
      "ĠOn": 4918,
      "à³ģ..!": 4919,
      "Ġà²ħà²®à²°à²¨": 4920,
      "Ġà²ĺà²Łà²ķà²µà²¨": 4921,
      "iversity": 4922,
      "Ġà²ķà²°à²µ": 4923,
      "Ġà²ļà²µ": 4924,
      "à²ĸà²°à²¨": 4925,
      "Ġ450": 4926,
      "adu": 4927,
      "Ġà²Ĺà²£à²ªà²¨": 4928,
      "Ġà²Ĩà²¶à²¯à²¦": 4929,
      "ahalli": 4930,
      "Ġà²ķà²µà²¨à²Ĺà²³": 4931,
      "à²Łà²ªà²¦": 4932,
      "à²¯à²ķà²¨à²¨": 4933,
      "Ġ97": 4934,
      "opp": 4935,
      "ver": 4936,
      "ĠÂ«": 4937,
      "ĠPhoto": 4938,
      "now": 4939,
      "à³ĩ)": 4940,
      "à²¶à²¯à²¦à²²": 4941,
      "âĸ¬âĸ¬": 4942,
      "à²Ĳà²µ": 4943,
      "à²¿):": 4944,
      "ĠToday": 4945,
      ".\"": 4946,
      "Ġà²¸à²®à²ľ": 4947,
      "à²°à²³à²¨": 4948,
      "Ġ96": 4949,
      "Ġ900": 4950,
      "olitics": 4951,
      "à²µà²µà²³": 4952,
      "Ġà²®à²²à²ª": 4953,
      "Ġà³¨à³¦à³§à³Ń": 4954,
      "lanet": 4955,
      "\":\"": 4956,
      "ĠInter": 4957,
      "ĠÐ´": 4958,
      "aja": 4959,
      "OS": 4960,
      "form": 4961,
      "ix": 4962,
      "Ġà²Ĵà²³à²¹": 4963,
      "à³©à³ª": 4964,
      "Ġà³©à³¨": 4965,
      "ober": 4966,
      "rou": 4967,
      "way": 4968,
      "Ġà²İà²µà²°": 4969,
      "Ġà²¦à²¶à²®": 4970,
      "Ġà²¶à²°à²¦": 4971,
      "Ġà²īà²®à²°": 4972,
      "Ø§ÙĦ": 4973,
      "à³ĨâĢĻ.": 4974,
      "Ġfilm": 4975,
      "à²µà²ľà²°": 4976,
      "Ġà²ıà²µ": 4977,
      "à²ľà²¨à²¸": 4978,
      "à³ģâĢĻ.": 4979,
      "à³©à³Ń": 4980,
      "à²ķà²ªà²¤": 4981,
      "à²¸à²®à²¯": 4982,
      "Ġà²Ĩà²Ĺà²·": 4983,
      "à³©à³®": 4984,
      "à²¿.....": 4985,
      "à²¹à²°à²²": 4986,
      "Ġà²İà²¡à²ķ": 4987,
      "à²ľà²¨à²Ĺà²³à²¨": 4988,
      "ick": 4989,
      "national": 4990,
      "à²¯à²ļà²Ł": 4991,
      "âĢĮâĢĮâĢĮâĢĮ": 4992,
      "Ġà²¯à²¡à²µà²Ł": 4993,
      "Ġà²°à²ľà²ª": 4994,
      "Ġà²ľà²²à²µ": 4995,
      "Ġrele": 4996,
      "allery": 4997,
      "Ġ1992": 4998,
      "Ñİ": 4999,
      "à²¤à²ªà²¦": 5000,
      "à²¸à²¨à²²": 5001,
      "à³ĬâĢĻ": 5002,
      "à²µà²¨à²ª": 5003,
      "Ġà²ĺà²³": 5004,
      "Ġà²¬à²¡à²¤à²¨à²¦": 5005,
      "Ġà²ķà²¸à²µà²¨": 5006,
      "à²²à²¦à²°à²²": 5007,
      "à²¹à²£à²¦": 5008,
      "Ġà²ħà²¦à²®": 5009,
      "Ġà²¬à²²à²Ń": 5010,
      "ICE": 5011,
      "fter": 5012,
      "Ġà²¦à²¹": 5013,
      "Ġà²ķà²°à²ªà²¤": 5014,
      "à²¯à²¯à²¨à²¦à²²": 5015,
      "à²¨à²¡à²¤": 5016,
      "à²²à²¨à²µà²¨": 5017,
      "apt": 5018,
      "row": 5019,
      "Ġà²°à²£à²¤": 5020,
      "IP": 5021,
      "land": 5022,
      "Ġ:)": 5023,
      "à¥°": 5024,
      "ME": 5025,
      "ÙĬ": 5026,
      "Ġà²¬à²°à²ª": 5027,
      "à²¤à²¹à²µ": 5028,
      "2004": 5029,
      "gmail": 5030,
      "à²¦à²¯à²µà²¨": 5031,
      "à²µà²¶à²°": 5032,
      "à²·à²Ĺà²Ł": 5033,
      "à²¥à²µà²°à²¨": 5034,
      "Ġà²ľà²¨à²¸à²®": 5035,
      "à²¡à²¨à²¹à²³": 5036,
      "itle": 5037,
      "igh": 5038,
      "Ġvideos": 5039,
      "à³ģ.?": 5040,
      "à²°à²ķà²¤": 5041,
      "à²°à²ķà²Łà²¨": 5042,
      "à²ĩà²ĵ": 5043,
      "Ġ1970": 5044,
      "ĠGovernment": 5045,
      "PD": 5046,
      "Â»": 5047,
      "à²Ĺà²ľà²°": 5048,
      "Ġpolice": 5049,
      "à²ªà²°à²µ": 5050,
      "à²µà²¸à²¹": 5051,
      "ĠSp": 5052,
      "ĠChi": 5053,
      "à¤Ĥ": 5054,
      "Ġà²ķà²®à²²à²¦": 5055,
      "Ġà¶": 5056,
      "Ġà²ĩà²«": 5057,
      "Ġà²¡à²ķ": 5058,
      "à²¸à²µà²Ĺà²³": 5059,
      "ise": 5060,
      "Ġkannadaprabha": 5061,
      "ords": 5062,
      ")-": 5063,
      "anc": 5064,
      "Ġà²¤à²°à²¬à²¹": 5065,
      "Ġ92": 5066,
      "ovt": 5067,
      "Ġ1995": 5068,
      "à³ģ.)": 5069,
      "à³įâĢĵ": 5070,
      "Ġà²°à²¡": 5071,
      "Ġà²µà²°à²¨": 5072,
      "ivep": 5073,
      "Ġ1989": 5074,
      "ãĢģ": 5075,
      "Ġà²¸à²Ĺà²Ł": 5076,
      "Ġà²¬à²°à²µ": 5077,
      "Ġ93": 5078,
      "à²®à²£à²¨": 5079,
      "ĠOct": 5080,
      "App": 5081,
      "yst": 5082,
      "Ġà²ħà²ĺ": 5083,
      "à²£à²Ń": 5084,
      "Ġà²Ĺà²¯": 5085,
      "ica": 5086,
      "à¤®": 5087,
      "Ġà²¹à²Ĺà²°à²£à²¦à²²": 5088,
      "Ð¾Ð¼": 5089,
      "à²®à²°à²¦": 5090,
      "Ġà²ķà²¸à²¬": 5091,
      "Ġà²Łà²Ĺà²°": 5092,
      "adesh": 5093,
      "à²µà²²à²ª": 5094,
      "ission": 5095,
      "âĤ": 5096,
      "à²·à²°à²²": 5097,
      "à²°à²¸à²µ": 5098,
      "BS": 5099,
      "Ġà²¦à²¡à²¦à²²": 5100,
      "Ġmar": 5101,
      "à¤µ": 5102,
      "eath": 5103,
      "comEditorBP": 5104,
      "Ġà²Ĩà²³à²ķ": 5105,
      "Ġà²ĸà²¦": 5106,
      "à²ĺà²µà²¨": 5107,
      "Ġbl": 5108,
      "agu": 5109,
      "ĠGandhi": 5110,
      "ĠGallery": 5111,
      "LA": 5112,
      "à²¤à²ªà²°": 5113,
      "à³Ĩ.(": 5114,
      "Ġà²ĩà²ľ": 5115,
      "Ġà²§à²¨à²¸": 5116,
      "Ġà²¸à²¹à²ļà²°à²°": 5117,
      "à²Ĺà²£à²ķ": 5118,
      "eth": 5119,
      "à²¯à²ķà²¨à²¹à²³": 5120,
      "Ð¾Ð´": 5121,
      "Ġà²Ĩà²Ńà²°à²£à²Ĺà²³à²¨": 5122,
      "à²Ĺà²µà²¤à²°": 5123,
      "Ġà²¥à²Ł": 5124,
      "Ġà²°à²ľà²¤": 5125,
      "hana": 5126,
      "Ġatt": 5127,
      "Ġà²¨à²°à²®": 5128,
      "à²ªà²¡à²¬": 5129,
      "Ġà²¬à²¹à²³à²µ": 5130,
      "ating": 5131,
      "Ġtra": 5132,
      "à²¨à²°à²¨": 5133,
      "à²ħà²¹à²®à²¦": 5134,
      "iveplanet": 5135,
      "ros": 5136,
      "Ġà²ĩà²Ĺà²°": 5137,
      "à²®à²¨à²Ĺà²°à²¦à²²": 5138,
      "ahul": 5139,
      "rishna": 5140,
      "à³Ģ...": 5141,
      "à²¹à²®à²¦": 5142,
      "Ġà²¦à²°à²ķ": 5143,
      "à²¤à²¦à²µà²°": 5144,
      "à²ħà²ĸ": 5145,
      "Ġà²Īà²Ĺà²·": 5146,
      "à³ģ?âĢĻ": 5147,
      "aa": 5148,
      "à³Ĩ]": 5149,
      "à²³à²¯": 5150,
      "à²Ĺà²²à²¦": 5151,
      "Ġà²®à²²à²¬à²¦": 5152,
      "Ġà²¬à²¸à²ª": 5153,
      "hel": 5154,
      "Ġà²ļà²¡à²ªà²¡": 5155,
      "Ġcomp": 5156,
      "eed": 5157,
      "å¹": 5158,
      "Ġà²ħà²²à²ķ": 5159,
      "Ġà²Ńà²ľ": 5160,
      "Ġà²ħà²µà²²à²ķ": 5161,
      "imes": 5162,
      "Ġà²¨à²µà²¨": 5163,
      "Ġà²īà²ªà²°": 5164,
      "à²Ĩà²ļ": 5165,
      "Ġme": 5166,
      "ĠComm": 5167,
      "ownload": 5168,
      "à²§à²¶à²¤à²ķ": 5169,
      "Ġà²ľà²¯à²¤": 5170,
      "Ġà²īà²¦à²¯à²µ": 5171,
      "Ġà²ķà²¡à²¤": 5172,
      "rest": 5173,
      "ĠNativeplanet": 5174,
      "Political": 5175,
      "à²®à²ļà²°": 5176,
      "Ġtv": 5177,
      "à²²à²ľà²¨à²ķ": 5178,
      "Ġà²¬à²¬": 5179,
      "Ġà²¬à²¡à²Ĺ": 5180,
      "Ġà²ļà²®à²¤": 5181,
      "Ġà²ħà²²à²¹": 5182,
      "Ġà²ķà²£à²µ": 5183,
      "mp": 5184,
      "×¼": 5185,
      "à²ªà²®à²Ł": 5186,
      "à²°à²ķà²¨": 5187,
      "ruit": 5188,
      "à²¡à²ļ": 5189,
      "à²¦à²ķà²¤": 5190,
      "à²Ĵà²¸": 5191,
      "à³Ĩ?âĢĻ": 5192,
      "Ġdo": 5193,
      "Ð¾Ð»": 5194,
      "Ġà²ľà²¨à²µ": 5195,
      "Ġà²ıà²®": 5196,
      "ern": 5197,
      "ĠMah": 5198,
      "Ġà²Ĩà²Łà²Ĺà²³à²¨": 5199,
      "à²ĺà²²": 5200,
      "Ġ1993": 5201,
      "250": 5202,
      "AP": 5203,
      "Ġà²īà²¹": 5204,
      "ĠRe": 5205,
      "amm": 5206,
      "à²ªà²³à²¦à²²": 5207,
      "indow": 5208,
      "ox": 5209,
      "Ġà²İà²¡à²¬": 5210,
      "Ġ91": 5211,
      "the": 5212,
      "à²¶à²°à²£": 5213,
      "Ġà²®à²³à²µà²³": 5214,
      "ould": 5215,
      "rid": 5216,
      "à²µà²§à²°": 5217,
      "à³ĢâĢĻ": 5218,
      "à²¯à²¸à²®": 5219,
      "ĠActor": 5220,
      "Ġà²²à²µà²²à²µ": 5221,
      "Ġà²¡à²¯à²Ł": 5222,
      "Ġà²®à²·": 5223,
      "à²®à²ĺà²Ł": 5224,
      "à²ļà²¬à²¹": 5225,
      "à²¾.?": 5226,
      "à²²à²µà²°à²¨": 5227,
      "ĠÐ½Ð°": 5228,
      "ms": 5229,
      "à²¿''": 5230,
      "istan": 5231,
      "News": 5232,
      "af": 5233,
      "rib": 5234,
      "à²Łà²¬à²²": 5235,
      "Ġà²°à²µà²°à²¨": 5236,
      "Ġ1984": 5237,
      "âĤ¹": 5238,
      "à²ķà²¦à²µà²°": 5239,
      "à²īà²¨": 5240,
      "Ġbus": 5241,
      "Ġyear": 5242,
      "ysore": 5243,
      "Ð¡": 5244,
      "à²ħà²ļ": 5245,
      "Ġà²ľà²¯à²ļ": 5246,
      "à³ªà³ª": 5247,
      "à²³à²Ĺà²³à²¨": 5248,
      "Ġà²ªà²°à²ķ": 5249,
      "à²Łà²£à²µ": 5250,
      "Ġà²ĵà²¹": 5251,
      "BC": 5252,
      "à²¸à²®à²¸": 5253,
      "Ġà²ªà²¤à²¨à²Ĺ": 5254,
      "à²µà²°à²£à²ķ": 5255,
      "à²Ńà²¸": 5256,
      "Ġ102": 5257,
      "nt": 5258,
      "Ġà²ķà²«": 5259,
      "à³ĨâĢĻ,": 5260,
      "udget": 5261,
      "oy": 5262,
      "ĻĤ": 5263,
      "Ġà²¬à²°à²¯": 5264,
      "à³©à³©": 5265,
      "!]": 5266,
      "MS": 5267,
      "à³Ĭ-": 5268,
      "Ġà²ĵà²Łà²¦à²²": 5269,
      "Ġ128": 5270,
      "ĠActress": 5271,
      "Ġbel": 5272,
      "ÐµÑĤ": 5273,
      "Ġà²¨à²¡à²¤": 5274,
      "âĢ¦..": 5275,
      "ese": 5276,
      "........": 5277,
      "Ġà²µà²°à²®à²¹": 5278,
      "Ġà²ħà²ªà²¨": 5279,
      "âĢĶ": 5280,
      "à²ľà²®à²¨": 5281,
      "Ġà²«à²²à²µà²¨": 5282,
      "Ġà²ľà²¨à²®à²¨": 5283,
      "Ġ1991": 5284,
      "con": 5285,
      "à²¸à²®à²°": 5286,
      "à³Ĩ,\"": 5287,
      "Ġcar": 5288,
      "very": 5289,
      "à²¤à²¨à²²": 5290,
      "à²¨à²µà²¤": 5291,
      "Ġla": 5292,
      "Ġout": 5293,
      "à²²à²ĸà²¨": 5294,
      "Ġà²¤à²¬à²²": 5295,
      "à²¯à²¨à²¦": 5296,
      "à²ĺà²ªà²°": 5297,
      "Ġà²Ĳà²¬": 5298,
      "à³Ĩà³ĸà²Ĥ": 5299,
      "à²£à²¤à²°": 5300,
      "reat": 5301,
      "Ġ::": 5302,
      "à²īà²°": 5303,
      "Ġà²¬à²¸à²¦": 5304,
      "à²£à²¯à²¦": 5305,
      "Ġà²¤à²³à²µ": 5306,
      "Ġà²Ĩà²¶à²¯à²µ": 5307,
      "ival": 5308,
      "ealth": 5309,
      "2000": 5310,
      "ron": 5311,
      "à²Ĺà²¸à²Ń": 5312,
      "à²Ĩà²¤à²¨": 5313,
      "Ġà²İà²°à²¡à²ķ": 5314,
      "à²¿à³ģ": 5315,
      "à²°à²¨à²¡": 5316,
      "Ġminister": 5317,
      "ĠPre": 5318,
      "Ġindia": 5319,
      "Ġà²ĩà²¤à²°à²°à²¨": 5320,
      "ĠBel": 5321,
      "ĠFS": 5322,
      "à²®à²ķà²°": 5323,
      "Ġà²¬à²ľà²°": 5324,
      "ade": 5325,
      "à²°à²¹à²°": 5326,
      "Ġkan": 5327,
      "Ġwas": 5328,
      "Ð½Ñĭ": 5329,
      "Ġconstituency": 5330,
      "GH": 5331,
      "à²Ĺà²ķà²°": 5332,
      "anj": 5333,
      "Ġà²®à²°à²Ĺ": 5334,
      "outh": 5335,
      "ose": 5336,
      "IL": 5337,
      "Ġà²°à²Ł": 5338,
      "à²¦à²²à²¦à²²": 5339,
      "Ġà²¬à²²à²µà²¨": 5340,
      "990": 5341,
      "Ġà²īà²ªà²¨à²Ĺà²°": 5342,
      "Ah": 5343,
      "ke": 5344,
      "à²¾à²ĥ": 5345,
      "Ġà²¯à²°": 5346,
      "Ġà²ħà²¸à²®à²¤": 5347,
      "Ġà²Ĵà²³à²ª": 5348,
      "lect": 5349,
      "ĠJuly": 5350,
      "abha": 5351,
      "à²¨à²¡à²¨": 5352,
      "à²¨à²µà²°à²¨": 5353,
      "Ġà²¹à²Ĺà²°à²£à²Ĺà²³": 5354,
      "à²µà²¦à²µà²°": 5355,
      "à²ķà²Łà²°à²®à²£": 5356,
      "à²īà²ļ": 5357,
      "agg": 5358,
      "Ġà²Ŀà²°": 5359,
      "arshan": 5360,
      "Î²": 5361,
      "à²¾à¥¤": 5362,
      "Ġà²Ĺà²¦à²°": 5363,
      "ÐºÐ°": 5364,
      "Ã¡": 5365,
      "Ġbigg": 5366,
      "à²ıà²³": 5367,
      "Ð»Ð¸": 5368,
      "à²ķà²£à²¦à²²": 5369,
      "Ġà²ıà²£": 5370,
      "Ġ\"\"": 5371,
      "razos": 5372,
      "kn": 5373,
      "à³ĤâĢĻ": 5374,
      "Ġà²µà²°à²¸": 5375,
      "à²łà²¨": 5376,
      "à²Ĩà²ªà²²": 5377,
      "uthor": 5378,
      "à²¸à²¨à²ķ": 5379,
      "Ġà²¸à²¶à²ķ": 5380,
      "Ġà²Ĩà²¦à²¦": 5381,
      "à²¨à²¨à²·": 5382,
      "angaluru": 5383,
      "acebook": 5384,
      "à²¨à²°à²²": 5385,
      "à²¨à²Ĺà²¤": 5386,
      "à²¬à²°à²µà²¨": 5387,
      "Ġ377": 5388,
      "Ġà²®à²°à²µà²¨": 5389,
      "à²°à²Ĺà²Ł": 5390,
      "orn": 5391,
      "ĠPro": 5392,
      "Ġà²Ķà²¤": 5393,
      "à²°à²¸à²°": 5394,
      "à²¦à²Ń": 5395,
      "à²¥à²²": 5396,
      "Ġà²¸à²°à²Ĺà²³": 5397,
      "Ġà²Ĭà²Łà²µà²¨": 5398,
      "ĠOf": 5399,
      "irth": 5400,
      "à²¯à²°à²µà²°": 5401,
      "ret": 5402,
      "à²¢à²ªà²Ł": 5403,
      "hun": 5404,
      "Ġà²®à²ľà²²": 5405,
      "Ġà²ªà²¸": 5406,
      "Ġà²¦à²¨à²¦": 5407,
      "ĠCar": 5408,
      "à¤¯": 5409,
      "osp": 5410,
      "Ġrajkumar": 5411,
      "hetty": 5412,
      "Ġà²¤à²²à²ķ": 5413,
      "Ġà²İà²µ": 5414,
      "à²ĩà²µà²¨": 5415,
      "à³Ńà³«": 5416,
      "ta": 5417,
      "Ġà²¸à²Ĺà²£": 5418,
      "à²¬à²°à²ķ": 5419,
      "Ġà²ľà²ľ": 5420,
      "emp": 5421,
      "ĠComments": 5422,
      "à²¦à²°à²¬": 5423,
      "à²¯à²ķà²°à²²": 5424,
      "ĠCl": 5425,
      "Ġà²Ĩà²³à²¦à²²": 5426,
      "à²¡à²®à²¨": 5427,
      "Ġà²¨à²¤": 5428,
      "à²¯à²¨à²²": 5429,
      "à²ĩà²®": 5430,
      "Ġboss": 5431,
      "Ġ1983": 5432,
      "Ø§Ø": 5433,
      "CO": 5434,
      "Ġà²Ĩà²¯à²¤": 5435,
      "ber": 5436,
      "twitter": 5437,
      "Âª": 5438,
      "à²¾/": 5439,
      "Ġà²ªà²³à²¨": 5440,
      "Ġà²İà²°à²µà²²": 5441,
      "à²¦à²¨à²¦": 5442,
      "Ġmodi": 5443,
      "?âĢĻ": 5444,
      "à³įâĢĮ/": 5445,
      "âĢĿ.": 5446,
      "Ġstud": 5447,
      "Post": 5448,
      "aid": 5449,
      "à²¤à²«": 5450,
      "à²ķà²®à²²": 5451,
      "à²¸à²°à²¸": 5452,
      "Ġmov": 5453,
      "à²·à²ķà²°à²²": 5454,
      "à²®à²¹à²¡": 5455,
      "Ã¼": 5456,
      "à²²à²Ńà²¦à²²": 5457,
      "Ġà²Ĩà²Ĺà²®à²¨à²¦": 5458,
      "anch": 5459,
      "Ġ109": 5460,
      "548": 5461,
      "eop": 5462,
      "Ġà²ħà²¨à²¸": 5463,
      "à²¯à²®à²¤": 5464,
      "ĠRevi": 5465,
      "eshw": 5466,
      "pril": 5467,
      "sk": 5468,
      "ÛĮ": 5469,
      "à²¸à²Ĺà²³à²²": 5470,
      "à³Ĩ.,": 5471,
      "à²°à²¤à²¨": 5472,
      "à²¤à²ķà²¥": 5473,
      "err": 5474,
      "Ġà²Ĵà²³à²ķ": 5475,
      "chn": 5476,
      "for": 5477,
      "ÙĨ": 5478,
      "Ġà²®à²¹à²®à²¦": 5479,
      "ĠIm": 5480,
      "Ġà²¸à²¡à²Ĺ": 5481,
      "Ġà²ĩà²¹à²²": 5482,
      "ĠKar": 5483,
      "ination": 5484,
      "à²°à²¨à²²": 5485,
      "Ġà²Ĩà²¯à²µ": 5486,
      "Ġà²İà²Ĺà²°": 5487,
      "Ġà²Ĩà²Ĺà²®à²¨": 5488,
      "à²®à²¨à²Ĺà²°à²¦": 5489,
      "Ġà²ħà²¸à²¡": 5490,
      "andan": 5491,
      "ots": 5492,
      "ĠÐ¼": 5493,
      "Ġà²ĺà²Łà²ķà²ķ": 5494,
      "Ġà²Ĩà²¡à²¬": 5495,
      "à²ĸà²ªà²Ł": 5496,
      "Ġà²¡à²¸": 5497,
      "à²ŀà²°à²¨": 5498,
      "à²¯à²µà²°à²²": 5499,
      "à¤ķ": 5500,
      "Ġà²¬à²¸à²¨à²Ĺ": 5501,
      "model": 5502,
      "Ġà²¸à²ķà²°": 5503,
      "à²¡à²²à²¦à²²": 5504,
      "Ġà²ħà²¡à²ķà²µ": 5505,
      "Ġà³©à³§": 5506,
      "Ġjds": 5507,
      "Brazos": 5508,
      "ock": 5509,
      "à²¸à²®à²¤": 5510,
      "à²¸à²°à²³": 5511,
      "ĠMinister": 5512,
      "ava": 5513,
      "ĠAugust": 5514,
      "Ã¤": 5515,
      "Ġà²ķà²¡à²¤à²Ĺà²³à²¨": 5516,
      "Ġ105": 5517,
      "à²īà²²": 5518,
      "à²ħà²ªà²ĺ": 5519,
      "ãĢĤ": 5520,
      "à²¤à²ķà²Ĺà²³à²²": 5521,
      "ĠMic": 5522,
      "ĠIndi": 5523,
      "nap": 5524,
      "à²¸à²¨à²µ": 5525,
      "à³ģ.âĢĻ": 5526,
      "à²²à²¦à²·": 5527,
      "Ġà²Ĩà²¸à²¨": 5528,
      "à³«à³«": 5529,
      "à²¨à²Ĺà²°à²¸à²Ń": 5530,
      "Ġwom": 5531,
      "à²¶à²ķà²°à²¨": 5532,
      "press": 5533,
      "à²ħà²«": 5534,
      "Ġact": 5535,
      "Ġhd": 5536,
      "ouse": 5537,
      "à²ľà²¨à²ķà²µ": 5538,
      "Ġà²¹à²£à²¤": 5539,
      "anda": 5540,
      "ĠJune": 5541,
      "Ġshow": 5542,
      "à²¦à²¬à²¹": 5543,
      "à²ķà²¸à²ķ": 5544,
      "à²Ĩà²³": 5545,
      "à²Ŀà²°": 5546,
      "Ġà²İà²¡à²Ń": 5547,
      "elebr": 5548,
      "wik": 5549,
      "äº": 5550,
      "Ġà°": 5551,
      "à²µà²Ĺà²¡": 5552,
      "à²µà²ªà²ķ": 5553,
      "Ġà²ªà²¤à²¨à²µ": 5554,
      "Ġà²Ńà²Ĺà²µà²¤": 5555,
      "ï¿½ï¿½ï¿½ï¿½ï¿½ï¿½ï¿½ï¿½ï¿½": 5556,
      "ika": 5557,
      "ject": 5558,
      "à²°à²¨à²Ł": 5559,
      "ĠRahul": 5560,
      "à³ªà³®": 5561,
      "igital": 5562,
      "Ġà²Ĺà²³à²·": 5563,
      "Ġ1960": 5564,
      "å¹´": 5565,
      "à²°à²¨à²¹à²³": 5566,
      "ĠBl": 5567,
      "ayat": 5568,
      "à²²à²ķà²°à²¨": 5569,
      "otest": 5570,
      "ĠLatest": 5571,
      "ute": 5572,
      "à²Ĺà²³à²®": 5573,
      "à²¥à²ķà²¤": 5574,
      "à²ķà²°à²°à²¨": 5575,
      "Ġà²ªà²¦à²ķà²ķ": 5576,
      "Ġà²¨à²°à²Ĺà²³": 5577,
      "à²¶à²Ń": 5578,
      "Ġà²¨à²¨à²Ĺà²¨": 5579,
      "Ġ118": 5580,
      "Ġkund": 5581,
      "åį": 5582,
      "à²ķà²µà²²": 5583,
      "Ġà²Ĺà²°à²¡": 5584,
      "à²µà²²à²ªà²°": 5585,
      "Ġà²Ĵà²³à²¹à²°": 5586,
      "unch": 5587,
      "Ġcourt": 5588,
      "uri": 5589,
      "odagu": 5590,
      "à²¯à²¤à²®": 5591,
      "à²°à²¶à²ķ": 5592,
      "eek": 5593,
      "Ð»ÑĮ": 5594,
      "ĠÃĹ": 5595,
      "Ġà³ĩ": 5596,
      "à²¿à²ĥ": 5597,
      "à²·à²¦à²·": 5598,
      "Ġà²ķà²¦à²¡": 5599,
      "Ġ~": 5600,
      "à²³à²¨à²µà²¨": 5601,
      "ĠNarendra": 5602,
      "Ġà²®à²°à²³à²¨": 5603,
      "ĠUp": 5604,
      "Ð¾Ð³": 5605,
      "Ġram": 5606,
      "à²¤à²ķà²²": 5607,
      "à²²à²¸à²ļ": 5608,
      "à²ŀà²¨": 5609,
      "à²¨à²®à²¸": 5610,
      "Ġà³¨à³¦à³¦à³¬": 5611,
      "hu": 5612,
      "à²°à²¦à²¤": 5613,
      "à²Ĺà²²à²Ń": 5614,
      "à²ķà²°à²£à²Ĺà²³": 5615,
      "athi": 5616,
      "à²¤à²ķà²ķ": 5617,
      "à²Ĵà²ķ": 5618,
      "aks": 5619,
      "Ġflood": 5620,
      "elop": 5621,
      "Ġà²¶à²¤à²ķà²¦": 5622,
      "Ġà²ħà²¡à²µ": 5623,
      "ĠIs": 5624,
      "à³®à³«": 5625,
      "ÑĤÐ°": 5626,
      "RO": 5627,
      "à²³à²®à²¦": 5628,
      "Ġà²ļà²¹à²°": 5629,
      "Ġ1950": 5630,
      "à¥ģ": 5631,
      "Ġà²¸à²¦à²¨à²¦": 5632,
      "ocial": 5633,
      "Ġà²Ĩà²µà²¤": 5634,
      "Ġà²Ĳà²Ĩà²°": 5635,
      "Ġco": 5636,
      "PRICE": 5637,
      "Ġà²¹à²¦à²µ": 5638,
      "à²·à²£à²Ĺà²£à²¨": 5639,
      "Ġà²ıà²¨à²ª": 5640,
      "Ġ1200": 5641,
      "ĠHow": 5642,
      "à³įâĢĮâĢĮ,": 5643,
      "upi": 5644,
      "Ġà²µà²ļà²¨à²ķ": 5645,
      "zz": 5646,
      "Ùħ": 5647,
      "à²²à²¶": 5648,
      "à²§à²®à²¨": 5649,
      "Ġà²¯à²®à²¨": 5650,
      "Ġà²«à²¡": 5651,
      "à¤²": 5652,
      "Ġà³®à³¦": 5653,
      "à³ĨâĢĮ.": 5654,
      "Ġover": 5655,
      "Ġà²¬à²¨à²µ": 5656,
      "à²¹à²ķà²µ": 5657,
      "à²İà²Ĩà²°": 5658,
      "à²ķà²¨à²ķ": 5659,
      "ĠOr": 5660,
      "Ġà²ªà²¦à²ķà²µà²¨": 5661,
      "!)": 5662,
      "EC": 5663,
      "St": 5664,
      "Ġà²Ĩà²²à²¦": 5665,
      "Ġà²ľà²¨à²µà²¸à²¤": 5666,
      "à²łà²Ĺà²³à²¨": 5667,
      "ĠRes": 5668,
      "Ġà²«à²²à²ª": 5669,
      "ĠÂ°": 5670,
      "à³Ĩ.!!": 5671,
      "à²¥à²¯": 5672,
      "Ġà²Ńà²ľà²°": 5673,
      "Ġà³¨à³¦à³¦à³®": 5674,
      "ĠAssembly": 5675,
      "à²Ĺà²®à²Ĺ": 5676,
      "à²¯à²¨à²Ĺà²°à²¦": 5677,
      "à²ľà²¨à²¤": 5678,
      "Ġà²®à²°à²³à²²": 5679,
      "arnatak": 5680,
      "Ġà²ªà²¦à²ķà²Ĺà²³": 5681,
      "hatsApp": 5682,
      "Ġà®": 5683,
      "à²°à²£à²¨": 5684,
      "odu": 5685,
      "à²¾âĢ¦?": 5686,
      "Ġ1947": 5687,
      "Ð½Ð¾": 5688,
      "aint": 5689,
      "AB": 5690,
      "ÙĪ": 5691,
      "à²Łà²¯": 5692,
      "ĠCo": 5693,
      "Ġpic": 5694,
      "à³¬à³«": 5695,
      "****": 5696,
      "æľĪ": 5697,
      "à²¾....": 5698,
      "Ġà²®à²¶": 5699,
      "à²°à²¹à²£à²µ": 5700,
      "Ġà²ķà²£à²Ĺ": 5701,
      "Ġà²ħà²¡à²ķ": 5702,
      "Ġà²ªà²¦à²Ĺà²³à²²": 5703,
      "à²Ĵà²¤": 5704,
      "low": 5705,
      "Ã³": 5706,
      "Ġà²®à²¡à²ķ": 5707,
      "à²¥à²µà²²": 5708,
      "à²ķà²°à²®": 5709,
      "Ġà²®à²¨à²ķ": 5710,
      "à²²à²¨à²Ĺ": 5711,
      "Ġac": 5712,
      "à²¬à²¸à²µà²£": 5713,
      "2005": 5714,
      "----------------": 5715,
      "ble": 5716,
      "à²¤à²°à²ķà²¨": 5717,
      "à³Ĩà³ķ,": 5718,
      "erala": 5719,
      "Ġ650": 5720,
      "ãģĦ": 5721,
      "uddi": 5722,
      "Ġï¿½ï¿½ï¿½ï¿½ï¿½ï¿½ï¿½": 5723,
      "ube": 5724,
      "irector": 5725,
      "à²°à²ľà²¨": 5726,
      "ĠKumar": 5727,
      "Ġà³¨à³¦à³¦à³Ń": 5728,
      "rans": 5729,
      "uj": 5730,
      "à²Ĺà²µà²°": 5731,
      "à²³à²ªà²Ł": 5732,
      "akistan": 5733,
      "nic": 5734,
      "alu": 5735,
      "raph": 5736,
      "ĠPraj": 5737,
      "à²¿[": 5738,
      "à²²à²¨à²µ": 5739,
      "ĠInf": 5740,
      "Ð½Ð°": 5741,
      "Ð»Ð°": 5742,
      "à²ļà²Ĺà²³à²¨": 5743,
      "à²§à²µà²²": 5744,
      "à²ĸà²¤": 5745,
      "à²İà²¬": 5746,
      "à²Ĵà²²": 5747,
      "à²ıà²ľ": 5748,
      "ÑĢÐ¸": 5749,
      "MI": 5750,
      "Ġà²¸à²«à²²à²°": 5751,
      "Ġà²µà²ł": 5752,
      "orth": 5753,
      "ĠJDS": 5754,
      "Ġà²µà²ļà²¨à²Ĺà²³à²¨": 5755,
      "rop": 5756,
      "à²¤à²µà²°à²¨": 5757,
      "à²¡à²µà²°à²¨": 5758,
      "Ġà²ľà²¬": 5759,
      "...]": 5760,
      "à²¾?âĢĿ": 5761,
      "irl": 5762,
      "OL": 5763,
      "Ġ--": 5764,
      "ĠCourt": 5765,
      "ÑĪ": 5766,
      "Ġà²ĵà²¸": 5767,
      "Ġà²ªà²¦à²Ĺ": 5768,
      "à²°à²Ńà²ķ": 5769,
      "Ġwh": 5770,
      "ĠUse": 5771,
      "US": 5772,
      "ium": 5773,
      "Ġà²¹à²°à²µ": 5774,
      "à²¹à²²à²µà²¨": 5775,
      "Ġà²ıà²ķà²ªà²ķ": 5776,
      "à²İà²İà²«": 5777,
      "Ġà²ħà²µà²¤à²°à²£": 5778,
      "ĠAg": 5779,
      "Ġà²ļà²²à²¨à²µà²²": 5780,
      "2002": 5781,
      "à²ķà²£à²ķ": 5782,
      "à²¯à²¸à²°": 5783,
      "Ġà²ķà²ľ": 5784,
      "Ġà²¬à²²à²°": 5785,
      "Ġlead": 5786,
      "ross": 5787,
      ".âĢĻ": 5788,
      "gov": 5789,
      "jun": 5790,
      "à²ķà²®à²Ł": 5791,
      "à³Ģ)": 5792,
      "à²§à²Ń": 5793,
      "Ġà²¸à²®à²µ": 5794,
      "à²¦à²ķà²¨": 5795,
      "ĠCent": 5796,
      "ĠIP": 5797,
      "?âĢĿ": 5798,
      "à²°à²µà²Ĺà²³": 5799,
      "à²ĩà²İ": 5800,
      "Ġà²ķà²²à²¹": 5801,
      "à²¡à²¬à²¡": 5802,
      "ero": 5803,
      "à¤¦": 5804,
      "Ġà³«à³«": 5805,
      "ĠÂ£": 5806,
      "obile": 5807,
      "Ġ00": 5808,
      "à²ķà²°à²Ĺ": 5809,
      "à²°à²®à²£à²¦": 5810,
      "red": 5811,
      "ĠVide": 5812,
      "ÐºÐ¸": 5813,
      "ĠðŁĻĤ": 5814,
      "ification": 5815,
      "à²¦à²²à²²": 5816,
      "à²Īà²ļ": 5817,
      "eral": 5818,
      "Ġà²§à²¨à²¸à²¹": 5819,
      "hone": 5820,
      "ng": 5821,
      "à²ĸà²°à²¤": 5822,
      "Ġtw": 5823,
      "ages": 5824,
      "ett": 5825,
      "Ġà²Ńà²¯à²Ń": 5826,
      "estival": 5827,
      "Ġ1985": 5828,
      "Ġà²ªà²°à²¤": 5829,
      "à²§à²ķà²µ": 5830,
      "Ġà²²à²ĸà²¨": 5831,
      "à²¤à²ķà²¨": 5832,
      "yle": 5833,
      "ÃŃ": 5834,
      "à³į[": 5835,
      "à²ľà²Ńà²µà²¨": 5836,
      "à²ĺà²Łà²Ĺ": 5837,
      "Ġà²¬à²¹à²¦": 5838,
      "era": 5839,
      "Ġcase": 5840,
      "Ġà³¨à³¦à³§à³«": 5841,
      "Ġprof": 5842,
      "====": 5843,
      "Ġà²ķà²Łà²ķ": 5844,
      "à³Ĭ|": 5845,
      "Ġà²µà²¨à²µ": 5846,
      "à³Ĩà³Ĥà³ķà²Ĥ": 5847,
      "ama": 5848,
      "Ġà²İà²°à²¡à²²": 5849,
      "eople": 5850,
      "à²³à²®à²Ł": 5851,
      "à²ħà²³": 5852,
      "reme": 5853,
      "icket": 5854,
      "àµį": 5855,
      "à³ŀ": 5856,
      "à²Ĥà¥¤": 5857,
      "à²¤à²°à²¬": 5858,
      "Ġà²Łà²¬": 5859,
      "Ġà²Ķà²·": 5860,
      "ĠRaghun": 5861,
      "Ġà²Ķà²¤à²£à²ķ": 5862,
      "ĠÎ": 5863,
      "à²¨à²®à²¨": 5864,
      "à²³à²Ĺà²³à²²": 5865,
      "à²³à²°à²¨": 5866,
      "à²ľà²¸à²µ": 5867,
      "Ġà²ĵà²®": 5868,
      "à²Ľà²¨": 5869,
      "à²ĵà²¹": 5870,
      "ĠBureauBP": 5871,
      "ĠPhotos": 5872,
      "SP": 5873,
      "be": 5874,
      "à²®à²«à²²à²ķ": 5875,
      "Ġà²¨à²°à²Ĺ": 5876,
      "Ġà²ªà²¤à²¨": 5877,
      "à²·à²¸à²°": 5878,
      "Ġà²¦à²®": 5879,
      "Ġà²¶à²µà²µ": 5880,
      "Ġà²ħà²¨à²µà²¶": 5881,
      "Ġà²ħà²µà²¨à²¦": 5882,
      "à³ªà³¬": 5883,
      "à³ªà³Ń": 5884,
      "Ġà³¨à³¦à³§à³¬": 5885,
      "ecial": 5886,
      "Ġà²Ĺà²Ĺà²¨à²¯": 5887,
      "jpghttp": 5888,
      "Ġo": 5889,
      "à²¨à²¬à²¸à²ª": 5890,
      "à²£à²¯à²ķ": 5891,
      "Ġà²ķà²³à²ķ": 5892,
      "à²²à²¨à²¦à²²": 5893,
      "ories": 5894,
      "Ġà²ĵà²¦à²¬à²¹": 5895,
      "Ġà²¤à²³à²®à²³": 5896,
      "ll": 5897,
      "à²¯à²£à²Ĺ": 5898,
      "à²Ĺà²¡à²¨": 5899,
      "inn": 5900,
      "irat": 5901,
      "Ġà²ľà²¯à²²à²ķ": 5902,
      "à³Ĩ.âĢĮ": 5903,
      "à²¯à²ķà²Ł": 5904,
      "à²īà²¸": 5905,
      "à²¯à²¶à²¸": 5906,
      "Ġ1988": 5907,
      "Ġ1978": 5908,
      "Ġà²¸à²µà²¦à²¤": 5909,
      "Õ¾": 5910,
      "à²®à²·": 5911,
      "Ġà²µà²°à²µ": 5912,
      "Ġà²ĺà²®": 5913,
      "ĠPar": 5914,
      "à²ľà²¯à²¶": 5915,
      "Ġ1972": 5916,
      "REX": 5917,
      "à²°à²£à²Ĺ": 5918,
      "Ġà²ħà²Ńà²¦": 5919,
      "à²°à²Ĺà²£": 5920,
      "Ġsays": 5921,
      "à²ľà²²à²ª": 5922,
      "Ġà³©à³«": 5923,
      "Ġà¤ķ": 5924,
      "à²°à²ªà²Ł": 5925,
      "à²ªà²°à²¦": 5926,
      "Ġà²¤à²¸à²²": 5927,
      "Ġà²¦à²¹à²¨": 5928,
      "Ġà²²à²·": 5929,
      "à²²à²¸à²µà²²": 5930,
      "come": 5931,
      "à²¡à²µà²°à²²": 5932,
      "Ġvis": 5933,
      "Ġà²ķà²¡à²²à²¤": 5934,
      "Ġagainst": 5935,
      "Ñĸ": 5936,
      "à³įâĢĮ),": 5937,
      "Ġà²īà²²à²¯": 5938,
      "à²ĺà²¸": 5939,
      "Ġà²ķà²¨à²ķà²Ĺ": 5940,
      "à²°à²¹à²Ł": 5941,
      "âľ": 5942,
      "à²ķà²°à²ķ": 5943,
      "Ġà²ªà²¦à²ļ": 5944,
      "ality": 5945,
      "à²¨à²ªà²²": 5946,
      "Ġsec": 5947,
      "Ġhis": 5948,
      "Ġà¤¸": 5949,
      "php": 5950,
      "BI": 5951,
      "bl": 5952,
      "ii": 5953,
      "à²¯à²¨à²¶": 5954,
      "à²İà²³": 5955,
      "âĢ¦!": 5956,
      "Ġsha": 5957,
      "à³ªà³¨": 5958,
      "rosoft": 5959,
      "Ġà²īà²¬à²°": 5960,
      "à²ķà²°à²Ĺà²³à²¨": 5961,
      "Ġà²«à²ķà²¤": 5962,
      "à²¬à²°à²Ĺ": 5963,
      "à²²à²ķà²ļ": 5964,
      "Ġà²Ĩà²¸à²¨à²Ĺà²³": 5965,
      "ator": 5966,
      "Ġà²¬à²²à²µà²°": 5967,
      "ĠCricket": 5968,
      "ĠDay": 5969,
      "ams": 5970,
      "à²Łà²£à²Ĺà²³à²²": 5971,
      "Ġà²ħà²ªà²¹à²°à²£à²ķ": 5972,
      "andaneditor": 5973,
      "ĠRaghunandaneditor": 5974,
      "aut": 5975,
      "fere": 5976,
      "à²¦à²¯à²°": 5977,
      "Ġà²ħà²¨à²²": 5978,
      "à²µà²°à²Ĺ": 5979,
      "Ġà²¸à²®à²¬à²²": 5980,
      "à²²à²¨à²Ĺà²°à²¦": 5981,
      "à²°à²µà²°à²¨": 5982,
      "Ġ123": 5983,
      "Ġà²İà²¡à²ªà²ķ": 5984,
      "à²³à²ķà²°": 5985,
      "Ġà²ķà²£à²¦": 5986,
      "à²Ĺà²³à²Ĺ": 5987,
      "à²Ĳà²ľ": 5988,
      "Ġà²Ĭà²Łà²µ": 5989,
      "Ġcricket": 5990,
      "Ġà²ħà²¥à²£": 5991,
      "à²¯à²µà²¤": 5992,
      "ĠCr": 5993,
      "ĠAs": 5994,
      "à²¿âĢĻ.": 5995,
      "Ġà²ħà²¸à²¹à²ľ": 5996,
      "ijay": 5997,
      "à²Ĭà²Ł": 5998,
      "Ġà²¿à²Ĥ": 5999,
      "Ø¯": 6000,
      "Ġà²¶à²®à²¨à²Ĺ": 6001,
      "..?": 6002,
      "ĠRec": 6003,
      "Ġà²Ĺà²£à²ª": 6004,
      "Ġ[...]": 6005,
      "à²¾âĢĵ": 6006,
      "à²ļà²¯à²µà²¨": 6007,
      "à²¶à²¤à²®": 6008,
      "à²Łà²ķà²Ĺà²³à²²": 6009,
      "à²ķà²¨à²¹à²³": 6010,
      "iga": 6011,
      "Ġone": 6012,
      "Ġà²ļà²¯": 6013,
      "Ġà²ıà²²": 6014,
      "à²°à²¸à²°à²£": 6015,
      "ines": 6016,
      "annel": 6017,
      "à²ĥ,": 6018,
      "ĠBy": 6019,
      "Ġ224": 6020,
      "Ġà²«à²²à²ķà²Ĺà²³": 6021,
      "Ġà²«à²²à²ķà²Ĺà²³à²¨": 6022,
      "Ġkanaja": 6023,
      "kart": 6024,
      "ìĿ": 6025,
      "à²¸à²¹à²ķ": 6026,
      "Ġà²¸à²²à²¦": 6027,
      "Ġà²ķà²¸à²²": 6028,
      "Ġà²¨à²¹": 6029,
      "à²¶à²¬à²°": 6030,
      "Ġà²ķà²¡à²¤à²Ĺà²³": 6031,
      "à²°à²³à²¯": 6032,
      "Ġwe": 6033,
      "à³Ĩ.['": 6034,
      "ange": 6035,
      "ishw": 6036,
      "à²¡à²µà²³": 6037,
      "Ġà²¤à²®à²¨": 6038,
      "Ġ(\"": 6039,
      "Ġà²¸à²¹à²®à²¤": 6040,
      "Ġno": 6041,
      "à²ĵà²İà²¸": 6042,
      "Ġà²¨à²µà²²à²Ĺ": 6043,
      "uy": 6044,
      "à²¦à²¸à²°": 6045,
      "à²®à²°à²³": 6046,
      "arat": 6047,
      "Ġà²ķà²µà²ļ": 6048,
      "Ġà²īà²ªà²¶": 6049,
      "Ġà²Ĩà²¶à²¯à²Ĺà²³": 6050,
      "ãģ§": 6051,
      "à³į..!": 6052,
      "à·Ĭ": 6053,
      "à²¤à²Ĺà²¤": 6054,
      "à²¡à²µà²²": 6055,
      "Ġà²ªà²°à²²": 6056,
      "à²¦à²¨à²¨": 6057,
      "à²ĺà²¡": 6058,
      "Ġà²ĩà²¦à²°à²°": 6059,
      "ĠMa": 6060,
      "à²¾?\"": 6061,
      "Ġgandhi": 6062,
      "Ġà²īà²£à²¬à²¡": 6063,
      "à²¾~": 6064,
      "à²¸à²ķà²²": 6065,
      "à²ĸà²ķà²¨": 6066,
      "à²ĺà²¦à²²": 6067,
      "à²¯à²®à²¯à²µ": 6068,
      "andra": 6069,
      "iver": 6070,
      "Ġ1971": 6071,
      "ĠØ§ÙĦ": 6072,
      "Ġà²Ńà²µà²¨à²ķ": 6073,
      "à²«à²Ł": 6074,
      "à²łà²¶": 6075,
      "à²®à²ķà²ķ": 6076,
      "ĠAb": 6077,
      "ĠApril": 6078,
      "à³«à³¬": 6079,
      "agara": 6080,
      "Ġà²¬à²°à²¹à²¦à²²": 6081,
      "va": 6082,
      "à²½": 6083,
      "inal": 6084,
      "ĠNa": 6085,
      "Ġfl": 6086,
      "à²¤à²°à²µà²·": 6087,
      "ely": 6088,
      "Ġà³ªà³©": 6089,
      "Ġà³Ńà³¦": 6090,
      "Ġà¥¤": 6091,
      "à²¸à²¹à²³": 6092,
      "à²¡à²Ĺà²²": 6093,
      "à²¤à²µà²¦": 6094,
      "Ġà²ķà²¡à²®": 6095,
      "à³ªà³©": 6096,
      "Ġwater": 6097,
      "Ġed": 6098,
      "à²¿Â": 6099,
      "Ġà²¬à²¦à²°": 6100,
      "à³Ī'": 6101,
      "à²¨à²Ĺà²°à²ķ": 6102,
      "Ġred": 6103,
      "à²¦à²Ĺà²²à²ķ": 6104,
      "Ġà²¤à²¥": 6105,
      "ities": 6106,
      "à²Ľà²¨à²¦à²²": 6107,
      "Ġà²ĩà²µà²¨à²¨": 6108,
      "index": 6109,
      "ucation": 6110,
      "ruitment": 6111,
      "?\"": 6112,
      "à²ķà²¡à²²": 6113,
      "Ġà²¬à²£à²¦": 6114,
      "à³ĭâĢ¦": 6115,
      "Ġà²¶à²ª": 6116,
      "Ġà²¬à²³à²Ĺà²µ": 6117,
      "ited": 6118,
      "ĠBh": 6119,
      "akash": 6120,
      "Ġbr": 6121,
      "ames": 6122,
      "à³¯à³¯": 6123,
      "Ġread": 6124,
      "Ġà³¨à³¦à³§à³§": 6125,
      "earch": 6126,
      "ience": 6127,
      "ki": 6128,
      "à²³à²Ĺà²²": 6129,
      "à²¡à²ªà²°": 6130,
      "Ġà²Łà²µ": 6131,
      "à²ĺà²Łà²ķ": 6132,
      "à²ħà²°à²¸": 6133,
      "ĠSnap": 6134,
      "ĠMore": 6135,
      "Ġà²¬à²£à²Ĺà²³": 6136,
      "ipkart": 6137,
      "à²¹à²¹": 6138,
      "Ġà²īà²¯": 6139,
      "à²ľà²¨à²¦": 6140,
      "à²¯à²®à²¶": 6141,
      "Ġà²Ĺà²£à²ķà²¯": 6142,
      "ures": 6143,
      "ounc": 6144,
      "Ġà²¸à²¡à²Ĺà²°à²¦": 6145,
      "],": 6146,
      "rov": 6147,
      "à²¤à²¸à²µ": 6148,
      "à²¦à²°à²¦à²²": 6149,
      "à²ĩà²ĩ": 6150,
      "ĠPart": 6151,
      "à³ĭ)": 6152,
      "à²§à²ķà²¨": 6153,
      "à²¦à²²à²¬": 6154,
      "Ġà²Ĵà²³à²¸": 6155,
      "ĠDigital": 6156,
      "ĠMad": 6157,
      "Ġafter": 6158,
      "à³¬à³©": 6159,
      "Ġà²ĭà²Ĺ": 6160,
      "Ġhigh": 6161,
      "à²¬à²¡à²µà²°": 6162,
      "ĠInd": 6163,
      "Ġà²®à²¡à²ļ": 6164,
      "2001": 6165,
      "Ġà³¨à³¦à³¦à³¯": 6166,
      "Posted": 6167,
      "FC": 6168,
      "js": 6169,
      "É±": 6170,
      "Ġà²ĩà²¯": 6171,
      "Ġmy": 6172,
      "à²ķà²¨à²¸": 6173,
      "Ġdes": 6174,
      "ãģĹ": 6175,
      "Key": 6176,
      "UTC": 6177,
      "à²³à²¤à²¨à²µ": 6178,
      "à²ħà²®à²°": 6179,
      "Ġà³§à³§à³": 6180,
      "Ġà²¥à²°à²¦": 6181,
      "deal": 6182,
      "ware": 6183,
      "à²¾),": 6184,
      "à²¹à²¸à²¦": 6185,
      "Ġmeet": 6186,
      "Ġcent": 6187,
      "à²¸à²Ĺà²Ł": 6188,
      "ural": 6189,
      "Ġà²Ńà²¯à²ªà²¡": 6190,
      "words": 6191,
      "Ġ360": 6192,
      "à²¶à²¨à²°": 6193,
      "à²°à²®à²¦à²¡": 6194,
      "Ġà²¬à²¯à²¸à²¦": 6195,
      "Ġsong": 6196,
      "Ġsex": 6197,
      "à³«à³©": 6198,
      "Ġà³¨à³¦à³§à³¦": 6199,
      "Ġrain": 6200,
      "à²°à²¥à²®à²µ": 6201,
      "Ġà²ķà²µà²¨à²Ĺà²³à²¨": 6202,
      "Ġvideo": 6203,
      "Ã¬": 6204,
      "à²¨à²ªà²¨": 6205,
      "Ġà²²à²µà²£": 6206,
      "Ġà²¸à²¹à²µà²°": 6207,
      "ĠPolice": 6208,
      "isc": 6209,
      "Ġ1986": 6210,
      "anti": 6211,
      "Ġunder": 6212,
      "Ġmovies": 6213,
      "Ġ]": 6214,
      "à²·à²¦à²°": 6215,
      "Ġà²Ĩà²°à²ķ": 6216,
      "Ġà²¹à²°à²ªà²¨à²¹à²³": 6217,
      "à²¸à²¤à²¤": 6218,
      "loc": 6219,
      "OT": 6220,
      "à²ªà²°à²¸": 6221,
      "Ġà²«à²¤": 6222,
      "Ġà²īà²ªà²ª": 6223,
      "Ġsm": 6224,
      "ĠHealth": 6225,
      "elf": 6226,
      "ãĥ¼": 6227,
      "indu": 6228,
      "à®²": 6229,
      "kk": 6230,
      "à²¿|": 6231,
      "Ġà²¸à²²à²µ": 6232,
      "à²²à²¦à²µà²¨": 6233,
      "à²¸à²¨à²µà²¨": 6234,
      "Ġà²®à²²à²Ĺà²²": 6235,
      "Ġ750": 6236,
      "Ġ2022": 6237,
      "ĠWorld": 6238,
      "à²ļà²°à²µà²¹": 6239,
      "))": 6240,
      "een": 6241,
      "ges": 6242,
      "ville": 6243,
      "à²¬à²¯à²²": 6244,
      "Ġà²Ĵà²Ĺà²Ł": 6245,
      "à²°à²¦à²µ": 6246,
      "Ġà²¨à²Ĺà²°à²ª": 6247,
      "Ġ124": 6248,
      "ased": 6249,
      "Ð¾Ð¹": 6250,
      "ystem": 6251,
      "my": 6252,
      "à³į....": 6253,
      "à²¸à²µà²°": 6254,
      "Ġà²ļà²®": 6255,
      "Ġà²¸à²¹à²¬": 6256,
      "à²ĩà²Ĩà²°": 6257,
      "à²Ľà²ķ": 6258,
      "ĠMB": 6259,
      "à³įâĢĮâĢĮâĢĮâĢĮ": 6260,
      "ĠUN": 6261,
      "à²¤à²¶à²¤": 6262,
      "ĠFlipkart": 6263,
      "à²Łà²ļ": 6264,
      "à²ªà²°à²¤": 6265,
      "à²¡à²°à²Ĺ": 6266,
      "bal": 6267,
      "à²¸à²³à²°": 6268,
      "à³Ĭà²Ĥ.": 6269,
      "à²µà²¨à²°": 6270,
      "à²²à²ķà²²": 6271,
      "ĠCont": 6272,
      "å®": 6273,
      "à²¾;": 6274,
      "Ġà²µà²Ł": 6275,
      "Ġà²İà²¡à²¦": 6276,
      "Ġà²ľà²¯à²ķ": 6277,
      "Ġà²ļà²ļ": 6278,
      "à²Ĺà²¦à²³": 6279,
      "ĠPat": 6280,
      "ĠEditor": 6281,
      "Øª": 6282,
      "ĠIN": 6283,
      "à²īà²¦à²¯": 6284,
      "ĠPublic": 6285,
      "à²¿âĢĻâĢĻ": 6286,
      "ists": 6287,
      "à³įâĢ¦.": 6288,
      "à²¸à²«": 6289,
      "Ġà²®à²Ĺà²¦": 6290,
      "à²£à²¯à²Ĺà²³à²¨": 6291,
      "à²·à²µà²°": 6292,
      "à²ĩà²³": 6293,
      "à³Ĩà³ķ.": 6294,
      "Ġà²°à²¸à²ª": 6295,
      "à³įâĢĻ.": 6296,
      "Ġà³§à³¯à³¦": 6297,
      "Ġà²Ĳà²İà²¨": 6298,
      "Ġà²¹à²°à²¡à²²": 6299,
      "à¥ĭ": 6300,
      "256": 6301,
      "Ġà³¨à³¦à³§à³©": 6302,
      "son": 6303,
      "à²®à²°à²µ": 6304,
      "à²Īà²Ĺà²²": 6305,
      "Ġà²¤à²¡à²ķ": 6306,
      "à³ªà³§": 6307,
      "Ch": 6308,
      "Ġà²¸à²°à²®": 6309,
      "Ġà²¬à²«": 6310,
      "à²£à²¹": 6311,
      "Ġà²µà²²à²¯à²µ": 6312,
      "Ġsur": 6313,
      "Ġvar": 6314,
      "à³ĩ..?": 6315,
      "ues": 6316,
      "Ãģ": 6317,
      "à³ĩ\"": 6318,
      "Ġà²ħà²¶à²ķ": 6319,
      "Ġà²¬à²Łà²°": 6320,
      "à²ļà²Ł": 6321,
      "à²ľà²¡": 6322,
      "à²ľà²¦à²µà²°": 6323,
      "à²¶à²¤à²ķ": 6324,
      "Ġà²¦à²µà²¡": 6325,
      "âĢĮà³ģ": 6326,
      "Ġind": 6327,
      "ĠEd": 6328,
      "Ġà²ħà²Ĺà²²à²¦": 6329,
      "ĠSnapdeal": 6330,
      "chi": 6331,
      "à²¤à²Ń": 6332,
      "à²¯à²°à²¦": 6333,
      "à²¬à²Ĺà²¨": 6334,
      "à²¢à²°": 6335,
      "ĠHigh": 6336,
      "ants": 6337,
      "»¿": 6338,
      "Ġï": 6339,
      "à²®à²¯à²ķ": 6340,
      "à³Ĥ..": 6341,
      "Ġà²ªà²£à²¤": 6342,
      "à²£à²¦à²µà²°": 6343,
      "à³ªà³¯": 6344,
      "ĠHom": 6345,
      "Ġà²īà²Ĺà²®": 6346,
      "Ġà²¤à²³à²®à²Ł": 6347,
      "apur": 6348,
      "error": 6349,
      "à³ģ.!": 6350,
      "Ġà²°à²¤à²¨": 6351,
      "Ġà²Ĵà²¡à²ķ": 6352,
      "à²¨à²¦à²¡": 6353,
      "ĠRuss": 6354,
      "resident": 6355,
      "Ġà²¹à²¤à²°": 6356,
      "Ġà²Ĩà²¯à²¨": 6357,
      "Ġà²Ĩà²²à²¸": 6358,
      "Ġà²Ĩà²¯à²ķà²Ł": 6359,
      "Ġà²İà²İà²ª": 6360,
      "à²ĸà²¨à²ķ": 6361,
      "Ġà²ħà²µà²¤à²°": 6362,
      "à²ĩà²ļ": 6363,
      "à²°à²¡à²ķ": 6364,
      "à²°à²°à²·": 6365,
      "à²Ĳà²¬": 6366,
      "à²§à²ķà²Ĺà²³à²¨": 6367,
      "ÐµÑĢ": 6368,
      "ĠMicrosoft": 6369,
      "Ġà²¸à²ķà²¤": 6370,
      "Ġà²¬à²ª": 6371,
      "à²ļà²Ń": 6372,
      "Ġ4000": 6373,
      "âĢĮà³Ĥ": 6374,
      "Ġ144": 6375,
      "ĠÐ·": 6376,
      "à³ģ',": 6377,
      "à²²à²³": 6378,
      "à³Ĩ.?": 6379,
      "à²³à²Ĺà²¨": 6380,
      "à²¶à²¨à²Ĺà²³à²²": 6381,
      "Ġwho": 6382,
      "ĠState": 6383,
      "irthday": 6384,
      "Ġmet": 6385,
      "ĠNational": 6386,
      "Ġserv": 6387,
      "Ġ['": 6388,
      "2003": 6389,
      "mer": 6390,
      "Ġmay": 6391,
      "à³ģ......": 6392,
      "ayan": 6393,
      "ution": 6394,
      "Ġ1962": 6395,
      "ĠUniversity": 6396,
      "ĠBe": 6397,
      "Ġpoll": 6398,
      "andh": 6399,
      "à³ĩ?âĢĻ": 6400,
      "Ġ149": 6401,
      "à±ģ": 6402,
      "Ġits": 6403,
      "Ġà²ķà²ªà²Ł": 6404,
      "Ġà²ľà²¯à²µ": 6405,
      "à²¯à²®à²µà²°": 6406,
      "arn": 6407,
      "Ġ1975": 6408,
      "andid": 6409,
      "Ġà²Ķà²·à²§à²Ĺà²³à²¨": 6410,
      "rent": 6411,
      "Keywords": 6412,
      "Ġà²¾": 6413,
      "à²ķà²£à²Ĺà²³": 6414,
      "Ġà²ªà²¥à²¦à²²": 6415,
      "à²¦à²°à²µà²¨": 6416,
      "à²®à²¨à²°": 6417,
      "Ġà²ĵà²¡à²²": 6418,
      "à²ļà²°à²Ĺ": 6419,
      "ĠRa": 6420,
      "Ġà²Ĩà²¶à²¯à²µà²¨": 6421,
      "Ġà²¹à²Ĺà²°à²£à²ķ": 6422,
      "title": 6423,
      "à³Ĭ?": 6424,
      "Ġà²¶à²µà²¦": 6425,
      "Ġà²Ĵà²°à²Ĺ": 6426,
      "à²¯à²ķà²µà²¨": 6427,
      "Ġà²²à²ľ": 6428,
      "à²¯à²¦à²ķ": 6429,
      "Ġchi": 6430,
      "oli": 6431,
      "à²¯à²¯à²¨à²µà²¨": 6432,
      "ĠÐ¡": 6433,
      "ips": 6434,
      "à²ķà²®à²¹": 6435,
      "à³ĩâĢĿ": 6436,
      "à²¶à²¯à²Ĺà²³à²¨": 6437,
      "Ġà²°à²Ĺ": 6438,
      "à³ģ,...": 6439,
      "Ġà²¡à²ļ": 6440,
      "Ġà²¬à²°à²¡": 6441,
      "ĠAuthor": 6442,
      "WS": 6443,
      "Ġà²¯à²¸": 6444,
      "Ġà²²à²®": 6445,
      "à²ŀà²µ": 6446,
      "à³Ĩ?\"": 6447,
      "à³Ĩ?âĢĿ": 6448,
      "Ġint": 6449,
      "à³Ńà³Ń": 6450,
      "oot": 6451,
      "à³Ĩ.âĢ¦": 6452,
      "à²ħà²µà²°à²¨": 6453,
      "à²¯à²µà²°à²¦": 6454,
      "ĠTra": 6455,
      "use": 6456,
      "ipedia": 6457,
      "ohli": 6458,
      "bengaluru": 6459,
      "karnatak": 6460,
      "ness": 6461,
      "à²§à²ªà²ķ": 6462,
      "à²¨à²¡à²ª": 6463,
      "ĠName": 6464,
      "Ġà²®à²²à²¤": 6465,
      "à³¯à³¦": 6466,
      "Ġ135": 6467,
      "à²¿âĢ¦.": 6468,
      "Ñī": 6469,
      "Ġ220": 6470,
      "Ġà²Ĳà²¹": 6471,
      "ĠIt": 6472,
      "Ġgo": 6473,
      "ible": 6474,
      "Ġà²ħà²²à²¸": 6475,
      "à²Ĺà²¡à²Ĺ": 6476,
      "ĠNagar": 6477,
      "à²īà²ľ": 6478,
      "à³«à³®": 6479,
      "jpeg": 6480,
      "ANJ": 6481,
      "Ê«": 6482,
      "à²Ĺà²®à²ķ": 6483,
      "hest": 6484,
      "ĠUK": 6485,
      "Ġstar": 6486,
      "oney": 6487,
      "Ð²Ð°": 6488,
      "ĠEngl": 6489,
      "karnatakat": 6490,
      "à²¦à²Ĺà²²": 6491,
      "Ġ(?)": 6492,
      "Ġà²ķà²°à²Ĺà²¤": 6493,
      "Ġà²ĵà²İà²¸": 6494,
      "ĠRF": 6495,
      "Ġtime": 6496,
      "à²īà²ªà²¨": 6497,
      "ĠÐ±": 6498,
      "gaum": 6499,
      "à²°à²ĸà²°": 6500,
      "à²¡à²·": 6501,
      "à²°à²®à²°": 6502,
      "Ġà²ķà²²à²ĺà²Łà²Ĺ": 6503,
      "à²°à²ªà²¦": 6504,
      "Ġfirst": 6505,
      "ĠHe": 6506,
      "Ġà²·à²£": 6507,
      "Ġà²ķà²³à²µà²³à²ķ": 6508,
      "rut": 6509,
      "à³įà³Ĩ": 6510,
      "à²°à²¯à²¦": 6511,
      "à²£à²¸à²²": 6512,
      "Ġà²µà²Ĺ": 6513,
      "à²ħà²°à²µ": 6514,
      "à³įâĢį,": 6515,
      "ining": 6516,
      "Ġà²ıà²ķà²¸": 6517,
      "ï¿½ï¿½ï¿½ï¿½ï¿½ï¿½ï¿½ï¿½ï¿½ï¿½": 6518,
      "Ġsiddaramaiah": 6519,
      "ĠMLA": 6520,
      "Ġkm": 6521,
      "à²ĵà²µà²°": 6522,
      "Ġà²¤à²µà²ķà²¦à²²": 6523,
      "TV": 6524,
      "à²µà²Ĺà²²": 6525,
      "à²¡à²¹à²¬": 6526,
      "Ġà²Ńà²¯à²µà²¨": 6527,
      "à³Ĩ,''": 6528,
      "ref": 6529,
      "rah": 6530,
      "Ġà³¨à³¦à³¦à³¦": 6531,
      "à²Ĺà²£à²µ": 6532,
      "Ġà²ªà²¹à²£": 6533,
      "Ġà²¸à²®à²ª": 6534,
      "à³įâĢį.": 6535,
      "Ġ``": 6536,
      "1999": 6537,
      "ails": 6538,
      "SR": 6539,
      "à²²à²¬à²°": 6540,
      "à²ķà²¸à²¨": 6541,
      "à²¯à²£à²¦à²²": 6542,
      "à²®à²°à²ķ": 6543,
      "Ġà²¬à²¬à²²": 6544,
      "Ġà²ĸà²¤": 6545,
      "à²łà²®": 6546,
      "à²ħà²Ł": 6547,
      "reen": 6548,
      "ĠKhan": 6549,
      "ino": 6550,
      "ĠSK": 6551,
      "à³ģ?âĢĿ": 6552,
      "ogram": 6553,
      "à²¯à²¨à²ª": 6554,
      "ĠReddy": 6555,
      "ĠSun": 6556,
      "aking": 6557,
      "akumar": 6558,
      "à²Ĺà²®à²¦à²²": 6559,
      "erson": 6560,
      "Ġ1982": 6561,
      "karnatakatoday": 6562,
      "IA": 6563,
      "ria": 6564,
      "à²¯à²ľà²®": 6565,
      "Ġà²ķà²¹à²³": 6566,
      "à²ľà²¯à²°": 6567,
      "à²¤à²µà²¤": 6568,
      "à²Ĺà²¡à²ķ": 6569,
      "à²ķà²Łà²°à²®": 6570,
      "à²Ĵà²İà²¸": 6571,
      "Ġà²¦à²°à²Ĺà²³à²¨": 6572,
      "ĠBank": 6573,
      "Ġ170": 6574,
      "Ġà²ªà²¦à²ķà²¦": 6575,
      "Ġà²¹à²²à²µà²°à²¨": 6576,
      "elopment": 6577,
      "uck": 6578,
      "Ġà²ĩà²¡à²¬à²¹": 6579,
      "à²°à²µà²¯": 6580,
      "à²°à²®à²¸": 6581,
      "à²ķà²µà²³": 6582,
      "ody": 6583,
      "oga": 6584,
      "Ð»Ðµ": 6585,
      "IF": 6586,
      "Ġeng": 6587,
      "à²ľà²¯à²®": 6588,
      "à²¤à²¨à²Ĺà²³à²¨": 6589,
      "à²¤à²®à²ªà²¡": 6590,
      "Ġà²ħà²ªà²ļ": 6591,
      "itha": 6592,
      "à²Ĺà²¨à²¹à²³": 6593,
      "à³Ĩ......": 6594,
      "à³¬à³Ń": 6595,
      "play": 6596,
      "mAh": 6597,
      "à²²à²¸à²²": 6598,
      "Ġà²ľà²¯à²£": 6599,
      "à²Ńà²®": 6600,
      "ĠPatt": 6601,
      "Ġworld": 6602,
      "à²ļà²²à²¨à²ļ": 6603,
      "nal": 6604,
      "rd": 6605,
      "à²¦à²ķà²°à²¨": 6606,
      "Ġà²®à²¨à²¶": 6607,
      "Ġà²¤à²¨à²ķà²µ": 6608,
      "à²°à²ªà²ķ": 6609,
      "ĠAward": 6610,
      "à³«à³Ń": 6611,
      "ardhan": 6612,
      "Ġarrest": 6613,
      "ĠAll": 6614,
      "MA": 6615,
      "à²®à²°à²¡": 6616,
      "à²Łà²¦à²µà²°": 6617,
      "à²ľà²¹": 6618,
      "Ġà²Ńà²¯à²¦à²²": 6619,
      "à²¡à²µà²µ": 6620,
      "à³Ĩ\".": 6621,
      "ÙĦ": 6622,
      "à³ģ.âĢĮ": 6623,
      "à²İà²Ĺ": 6624,
      "à²ľà²¨à²Ĺà²°à²¦": 6625,
      "iness": 6626,
      "Ġ107": 6627,
      "asa": 6628,
      "à²¨à²µà²°à²²": 6629,
      "à³Ĩ):": 6630,
      "ashm": 6631,
      "à²¡à²¹à²Ĺà²²": 6632,
      "Ġroad": 6633,
      "ĠReview": 6634,
      "gi": 6635,
      "Ġent": 6636,
      "à²¡à²¹à²³": 6637,
      "à²ªà²¨à²ķ": 6638,
      "Ġâĸ": 6639,
      "cha": 6640,
      "rin": 6641,
      "à²¯à²ªà²°": 6642,
      "Ġà²®à²¬": 6643,
      "âĢİ": 6644,
      "à²Ĳà²¤": 6645,
      "ita": 6646,
      "Ġpo": 6647,
      "Ġav": 6648,
      "Ġà²ħà²¸à²®à²§": 6649,
      "Ġà²īà²ªà²ķà²°à²£à²µà²¨": 6650,
      "\",\"": 6651,
      "eer": 6652,
      "},": 6653,
      "à³ĩ:": 6654,
      "à³ĤâĢ¦": 6655,
      "à²¯à²ķà²¦à²²": 6656,
      "akh": 6657,
      "Ġ2500": 6658,
      "Ð¾ÑĤ": 6659,
      "Ġ1987": 6660,
      "eshwar": 6661,
      "Ġà²ļà²¡à²ļà²£": 6662,
      "iles": 6663,
      "Ġà´": 6664,
      "à²°à²¤à²°à²²": 6665,
      "à²¾à²¾": 6666,
      "à²µà²Ńà²ķ": 6667,
      "à²£à²ķà²¨": 6668,
      "à²¹à²¨à²¨": 6669,
      "Ġà²¤à²µ": 6670,
      "Ġà²Ĺà²¢": 6671,
      "Ġà²¶à²«": 6672,
      "Ġà²¶à²®à²¨": 6673,
      "à³ĥ.": 6674,
      "à²°à²¡à²°à²²": 6675,
      "unction": 6676,
      "à³Ńà³§": 6677,
      "ulture": 6678,
      "Ġà²ķà²°à²ķà²²": 6679,
      "Ġà²¤à²³à²ķ": 6680,
      "à²°à²¤à²²": 6681,
      "Ġ103": 6682,
      "ĠMet": 6683,
      "à¤¸": 6684,
      "ðŁĮ": 6685,
      "location": 6686,
      ",\"": 6687,
      "à²°à²ľà²¨à²ķ": 6688,
      "à²¨à²ķà²µ": 6689,
      "à²µà²ªà²°": 6690,
      "à²Łà²µà²²": 6691,
      "à²¹à²Ĺà²²": 6692,
      "à²ļà²¡": 6693,
      "à²¶à²°à²¨": 6694,
      "Ġà²ļà²Łà²°": 6695,
      "à²İà²ľ": 6696,
      "Ġà²Ĩà²Ĺà²®à²¨à²µ": 6697,
      "Ġà²Ĭà²³": 6698,
      "à²¬à²³à²µà²¨": 6699,
      "ĠSC": 6700,
      "à³ģ?\"": 6701,
      "à³¬à³®": 6702,
      "à²ľà²¯à²¦à²¶à²®": 6703,
      "åįĲ": 6704,
      "Ġà²¦à²¶à²°": 6705,
      "Ġà²ıà²¤à²¨": 6706,
      "à²¸à²¨à²Ĺà²°": 6707,
      "ĠAP": 6708,
      "à²¦à²µà²¨à²¨": 6709,
      "ortal": 6710,
      "struction": 6711,
      "ih": 6712,
      "vent": 6713,
      "à²°à²Ĺà²²": 6714,
      "Ġà²¤à²µà²³": 6715,
      "Ġà²İà²ķà²¨": 6716,
      "à²İà²Ĳà²¸": 6717,
      "à²°à²£à²µà²²": 6718,
      "à²ķà²¨à²ķà²ª": 6719,
      "ĠWe": 6720,
      "Ä±": 6721,
      "à²µà²ľà²¦": 6722,
      "Ġà²¦à²¯à²®": 6723,
      "Ġà²¦à²¯à²ª": 6724,
      "à²ħà²Ĺà²¤": 6725,
      "Ġà²Ĩà²¦à²®": 6726,
      "à²ļà²¨à²ķ": 6727,
      "à²Ĳà²«": 6728,
      "Ġda": 6729,
      "à¤¶": 6730,
      "off": 6731,
      "Ġà²¬à²°à²¹à²Ĺà²³à²²": 6732,
      "oppal": 6733,
      "Ġet": 6734,
      "à²¯à²µà²³": 6735,
      "ĠST": 6736,
      "à²¢à²ļ": 6737,
      "Ġà²ľà²Ĺà²³à²ķ": 6738,
      "oldid": 6739,
      "RS": 6740,
      "à²Łà²¤à²¨": 6741,
      "à²¦à²°à²Ĺ": 6742,
      "à²¶à²²à²ķà²°": 6743,
      "à²Ĺà²¡à²µ": 6744,
      "Ġtemple": 6745,
      "ĠDec": 6746,
      "ility": 6747,
      "Ġ175": 6748,
      "ãģ«": 6749,
      "ãģĻ": 6750,
      "avan": 6751,
      "anka": 6752,
      "ĠQu": 6753,
      "ml": 6754,
      "ps": 6755,
      "à²¯à²ļà²°à²£": 6756,
      "à²³à²¦à²µà²°": 6757,
      "Ġà²ªà²£à²ķ": 6758,
      "à²¥à²ªà²¡": 6759,
      "à²°à²ķà²Ĺà²³à²¨": 6760,
      "Ġà²ªà²°à²°": 6761,
      "à²¦à²ķà²µ": 6762,
      "Ġmur": 6763,
      "à³¬à³¬": 6764,
      "ument": 6765,
      "Ġà²Ĵà²£à²Ĺà²²": 6766,
      "ING": 6767,
      "ospital": 6768,
      "lim": 6769,
      "ym": 6770,
      "Äģ": 6771,
      "Ġà²¹à²°à²¤": 6772,
      "à²¬à²£à²Ĺ": 6773,
      "à³ĭà¥¤": 6774,
      "à²·à²°à²µ": 6775,
      "à²¯à²¦à²¤": 6776,
      "à²¤à²¹à²µà²°à²¨": 6777,
      "à²ķà²Łà²¸": 6778,
      "Ġà³ªà³«": 6779,
      "ateg": 6780,
      "ults": 6781,
      "à²²à²ľà²¨à²ķà²¦": 6782,
      "Â²": 6783,
      "ĺħ": 6784,
      "à²ķà²²à²¨à²¦": 6785,
      "ena": 6786,
      "Ġpeople": 6787,
      "Ġvillage": 6788,
      "à³§à³¯à³®": 6789,
      "RL": 6790,
      "xt": 6791,
      "à²¾âĢĮ": 6792,
      "Ġà²ĩà²°à²¤": 6793,
      "Ġà²ħà²²à²Ń": 6794,
      "Ġstate": 6795,
      "Ġà²¸à²®à²¤à²Ł": 6796,
      "Ġà²Īà²°à²£": 6797,
      "Ġà²Ĵà²µ": 6798,
      "Ġà²ħà²µà²¸à²°": 6799,
      "à²¨à²¨à²¨": 6800,
      "ott": 6801,
      "Ġà²ħà²°à²¸à²¨": 6802,
      "Ġà²¬à²¸à²µà²ķà²²": 6803,
      "RC": 6804,
      "Ġ),": 6805,
      "à²¡à²°à²¸": 6806,
      "Ġà²¨à²ª": 6807,
      "à²¹à²°à²µ": 6808,
      "Ġà²İà²°à²Ĺ": 6809,
      "Ġà²ľà²¯à²¨à²Ĺà²°à²¦": 6810,
      "à²¯à²¨à²µà²°à²¨": 6811,
      "à²łà²Ĺ": 6812,
      "Ġà²Ĳà²¦à²°": 6813,
      "ering": 6814,
      "uni": 6815,
      "à³«à³¯": 6816,
      "à¤¹": 6817,
      "à³įâĢĭâĢĭâĢĭâĢĭ": 6818,
      "ogga": 6819,
      "ĠVijay": 6820,
      "ĠElections": 6821,
      "ENT": 6822,
      "por": 6823,
      "à²¤à²®à²¨": 6824,
      "à²®à²¹à²²": 6825,
      "à²Łà²ľ": 6826,
      "Ġà²İà²¥": 6827,
      "à²°à²®à²¤": 6828,
      "à²¡à²²à²¸": 6829,
      "Ġà²ĸà²¯": 6830,
      "ĠSat": 6831,
      "à²²à²µà²°à²²": 6832,
      "à²Ĺà²®à²§": 6833,
      "à²¹à²£à²µà²¨": 6834,
      "DA": 6835,
      "ght": 6836,
      "à³įà³ģ": 6837,
      "à²£à²¯à²Ĺà²³": 6838,
      "à²ļà²°à²²": 6839,
      "Ġà²Ĩà²¬": 6840,
      "Ġà²ĩà²İ": 6841,
      "Ġà²Ńà²²": 6842,
      "atimes": 6843,
      "ĠSchool": 6844,
      "agavi": 6845,
      "Ġà²Ľà²²à²µ": 6846,
      "à³Ńà³®": 6847,
      "à²Ĳà²İà²İà²¨": 6848,
      "Ġà²°à²¥à²¯": 6849,
      "wal": 6850,
      "à²¦à²¨à²°": 6851,
      "à²ªà²¦à²Ĺà²³à²¨": 6852,
      "Ġà³¨à³¦à³§à³¨": 6853,
      "Ġà³¯à³¦": 6854,
      "Ġ1967": 6855,
      "101": 6856,
      "ole": 6857,
      "à²¨à²ķà²°à²¨": 6858,
      "Ġà²µà²¯à²ķ": 6859,
      "à²Ńà²°à²£à²Ĺà²³": 6860,
      "à²°à²ķà²µà²¨": 6861,
      "ative": 6862,
      "à²Īà²ķ": 6863,
      "ĠBB": 6864,
      "Ġbangalore": 6865,
      "Ð¾Ð½": 6866,
      "ĠĠĠĠĠĠĠĠ": 6867,
      "à²Ĺà²¤à²°": 6868,
      "à²ªà²ľ": 6869,
      "à²£à²¤à²¨": 6870,
      "Ġà²Ĩà²°à²¤à²ķ": 6871,
      "à²§à²¸": 6872,
      "akar": 6873,
      "Ġcelebr": 6874,
      "ĠMal": 6875,
      "rag": 6876,
      "Ġkumar": 6877,
      "à³Ģ.,": 6878,
      "ives": 6879,
      "angu": 6880,
      "ÑĤÑĮ": 6881,
      "ĠRussia": 6882,
      "dis": 6883,
      "Ġ<": 6884,
      "Ġann": 6885,
      "Ġà²ķà²µà²¨à²¦": 6886,
      "à³Ĭ)": 6887,
      "Ġà²İà²İ": 6888,
      "Ġà²ľà²¯à²¸": 6889,
      "Ġà²¡à²ľà²¨": 6890,
      "à²¦à²ķà²²": 6891,
      "Ġ115": 6892,
      "1024": 6893,
      "à²¸à²°à²µà²³": 6894,
      "Ad": 6895,
      "LC": 6896,
      "ihar": 6897,
      "à²Łà²¤à²¨à²¦": 6898,
      "Ġ1977": 6899,
      "lege": 6900,
      "andya": 6901,
      "ION": 6902,
      "Village": 6903,
      "à²®à²°à²Ĺà²³": 6904,
      "à²ªà²ł": 6905,
      "à²¯à²ķà²¦": 6906,
      "à²¨à²µà²¨à²¦à²²": 6907,
      "ĠShi": 6908,
      "Ġschool": 6909,
      "Ġexp": 6910,
      "à±į": 6911,
      "ĠIndiatimes": 6912,
      "vis": 6913,
      "à²§à²ķà²°à²¨": 6914,
      "Ġà²®à²¤à²µà²¨": 6915,
      "Ġà²§à²Ĺ": 6916,
      "à²¨à²¦à²¤": 6917,
      "à²Īà²µà²°": 6918,
      "Ġ106": 6919,
      "à³Ńà³ª": 6920,
      "________": 6921,
      "%)": 6922,
      "Ġà²¬à²¶": 6923,
      "à²¯à²¨à²Ĺ": 6924,
      "Ġà²Ĳà²ļ": 6925,
      "inet": 6926,
      "Ġà²¬à²²à²¶": 6927,
      "Ġà²Ĩà²²à²®à²Ł": 6928,
      "à³Ĩ',": 6929,
      "à²·à²¯à²µà²²": 6930,
      "à²¸à²¹à²ľ": 6931,
      "Ļı": 6932,
      "à²¿!!": 6933,
      "à²¦à²¨à²²": 6934,
      "à³Ĥ:": 6935,
      "à²ªà²ªà²Ł": 6936,
      "âĢŀ": 6937,
      "à²ªà²°à²Ĺ": 6938,
      "à²µà²¸à²®": 6939,
      "ĠAI": 6940,
      "Ġpar": 6941,
      "ãģ¾": 6942,
      "lock": 6943,
      "aptol": 6944,
      "ÑĦ": 6945,
      "à²£à²¬à²°": 6946,
      "Ġà²Ĩà²ĸ": 6947,
      "à²¯à²¨à²ķ": 6948,
      "à²¿.âĢĿ": 6949,
      "à²Ĺà²¤à²ķ": 6950,
      "Ġà²īà²ªà²Łà²³": 6951,
      "ĠPC": 6952,
      "ĠPakistan": 6953,
      "Ġpolitics": 6954,
      "amogga": 6955,
      "Ġreview": 6956,
      "Ġ1973": 6957,
      "ĠDevu": 6958,
      "bar": 6959,
      "à²Ĺà²³à²¡": 6960,
      "à²¶à²¹": 6961,
      "à²ªà²¨à²Ĺ": 6962,
      "à²Ĵà²İ": 6963,
      "ĠSingh": 6964,
      "Ġticket": 6965,
      "à³Ģà²Ĥ,": 6966,
      "Ġvs": 6967,
      "ular": 6968,
      "1998": 6969,
      "ĠNaaptol": 6970,
      "ĠPattar": 6971,
      "PM": 6972,
      "ces": 6973,
      "ĠÑĥ": 6974,
      "à²®à²¤à²ķ": 6975,
      "à²ľà²ªà²ķ": 6976,
      "Ġà²ľà²µà²°": 6977,
      "à²¥à²°à²²": 6978,
      "à²Ńà²µà²¦à²²": 6979,
      "ĠMed": 6980,
      "Ġchannel": 6981,
      "ĠBSY": 6982,
      "Ġà²ıà²ķà²µà²ļà²¨": 6983,
      "TE": 6984,
      "Ġà²Ĥ": 6985,
      "à²Łà²ªà²ķ": 6986,
      "Ġà²Ĩà²¦à²ķ": 6987,
      "Ġà²īà²¦à²°": 6988,
      "Ġà²ħà²§à²°": 6989,
      "à²ħà²¥": 6990,
      "à²°à²°à²µà²°": 6991,
      "à²Ĩà²Ĺà²²": 6992,
      "Ġà²İà²¸à²Ĺà²²": 6993,
      "ites": 6994,
      "Ġche": 6995,
      "ĠAt": 6996,
      "Ġbudget": 6997,
      "Ġdec": 6998,
      "Ġà²¬à²°à²¹à²µà²¨": 6999,
      "Ġà³«à³¦à³¦": 7000,
      "hara": 7001,
      "wikipedia": 7002,
      "åı": 7003,
      "Ġà²Ńà²¯à²Ĺ": 7004,
      "ĠâĢİ": 7005,
      "Ġà²ĵà²¨": 7006,
      "à²¤à²ķà²¤": 7007,
      "Ġà²®à²łà²µ": 7008,
      "Ġrel": 7009,
      "Ġà²¦à²¨à²ķà²°": 7010,
      "à²ļà²¨à²¦": 7011,
      "à²Łà²ķà²¡": 7012,
      "Ġà²ĵà²Łà²ķ": 7013,
      "erm": 7014,
      "Ġà²ĩà²µà²ķ": 7015,
      "à²µà²¸à²Ĺà²³": 7016,
      "irc": 7017,
      "à·Ĵ": 7018,
      "akshina": 7019,
      "mangalore": 7020,
      "å¤": 7021,
      "åħ": 7022,
      "à²¤à²¦à²°": 7023,
      "à²¤à²ķà²°à²¨": 7024,
      "Ġà²¨à²³à²¨": 7025,
      "à³ģ.(": 7026,
      "à²¡à²²à²Ĺ": 7027,
      "à²Ĩà²µ": 7028,
      "à²Ĺà²¨à²Ĺ": 7029,
      "à³¬à³ª": 7030,
      "Ġhar": 7031,
      "onsoon": 7032,
      "GA": 7033,
      "link": 7034,
      "Ġà²ħà²Ŀ": 7035,
      "à²¶à²²à²¤": 7036,
      "Ġà²°à²¥à²¦": 7037,
      "à²¡à²²à²µ": 7038,
      "Ġà²¸à²¦à²Ń": 7039,
      "à²¶à²ķà²¦": 7040,
      "erg": 7041,
      "Ġà²Ĭà²°à²¨": 7042,
      "ĠTop": 7043,
      "ands": 7044,
      "aper": 7045,
      "ollow": 7046,
      "Ġà²¹à²¡à²ªà²¦": 7047,
      ",...": 7048,
      "HD": 7049,
      "à²Ĺà²®à²Ĺà²³": 7050,
      "à²³à²·": 7051,
      "à²ļà²ķà²¨": 7052,
      "à²¦à²²à²µà²¨": 7053,
      "à²Ńà²°à²¤": 7054,
      "à²¥à²Ń": 7055,
      "enk": 7056,
      "ĠMain": 7057,
      "à²¨à²Ĺà²°à²Ĺà²³à²²": 7058,
      "riy": 7059,
      "Ġconf": 7060,
      "Ġà²®à²°à²¦à²²": 7061,
      "à³ģ.âĢĺ": 7062,
      "à²¤à²µà²µà²¨": 7063,
      "Ġà²ĵà²µà²²": 7064,
      "ony": 7065,
      "ĠSouth": 7066,
      "Ġsl": 7067,
      "Ġ126": 7068,
      "Ġpass": 7069,
      "Ġ116": 7070,
      "Ġà²¤à²³à²¦à²²": 7071,
      "à²ĵà²°": 7072,
      "Ġà²ªà²łà²£": 7073,
      "annadiga": 7074,
      "1000": 7075,
      "à²¤à²ªà²¤": 7076,
      "à²ªà²¹": 7077,
      "à²ªà²ļà²¯": 7078,
      "à²§à²¯": 7079,
      "à²Ĺà²¦à²µà²°à²¨": 7080,
      "Ġà²ħà²®à²µ": 7081,
      "atha": 7082,
      "Ġtwitter": 7083,
      "ĠCO": 7084,
      "ĠBC": 7085,
      "Ġ113": 7086,
      "ope": 7087,
      "Ġà²ªà²¦à²°à²Ĺà²³": 7088,
      "ANJE": 7089,
      "à²¨à²Łà²°": 7090,
      "Ġà²ľà²Ĺà²²": 7091,
      "à²¯à²²à²ķ": 7092,
      "Ġà²«à²¨": 7093,
      "à²¯à²®à²Ĺ": 7094,
      "à²¤à²®à²°": 7095,
      "à²Ĳà²°": 7096,
      "als": 7097,
      "Ġsudeep": 7098,
      "Ġà²Ķà²ļ": 7099,
      "ĠEES": 7100,
      "ĠEUR": 7101,
      "ãģª": 7102,
      "à²Ńà²°à²£à²Ĺà²³à²¨": 7103,
      "ĠEESANJE": 7104,
      "Ç®": 7105,
      "à²¨à²¤à²µ": 7106,
      "Ġà²ĩà²¤à²¨": 7107,
      "Ġà²¦à²¡à²¦": 7108,
      "Ġà²ľà²²à²ķ": 7109,
      "à²ķà²µà²·": 7110,
      "Ġ117": 7111,
      "à²¹à²¸à²ļ": 7112,
      "cture": 7113,
      "Ġlife": 7114,
      "avy": 7115,
      "Ġattack": 7116,
      "Oct": 7117,
      "XX": 7118,
      "çļ": 7119,
      "à²¸à²¡": 7120,
      "à²ħà²Łà²²": 7121,
      "ĠMus": 7122,
      "ĠMysuru": 7123,
      "Ġkil": 7124,
      "ets": 7125,
      "Ġ.....": 7126,
      "Kannadadalli": 7127,
      "UPD": 7128,
      "Î±": 7129,
      "à²®à²¯à²¦": 7130,
      "Ġà²¸à²µà²£": 7131,
      "à²¶à²¯à²µà²¨": 7132,
      "à²ķà²³à²¦à²²": 7133,
      "Ġ1948": 7134,
      "ayout": 7135,
      "Ġà²·à²Ł": 7136,
      "à³¬à³¯": 7137,
      "ĠYour": 7138,
      "ports": 7139,
      "à²ľà²¯à²²à²²": 7140,
      "kh": 7141,
      "à²¨à²Ĺà²¦": 7142,
      "à²Ĺà²¹": 7143,
      "Ġà²µà²²à²¯à²µà²¨": 7144,
      "à²§à²ķà²¦": 7145,
      "à²µà²°à²¤": 7146,
      "Ġà²¦à²·": 7147,
      "Ġsub": 7148,
      "ĠMy": 7149,
      "Ġprice": 7150,
      "ĠTemple": 7151,
      "ĠâĨ": 7152,
      "Ġ114": 7153,
      "à³Ĩ!!!": 7154,
      "Ġnarendra": 7155,
      "Ġà³¨à³¦à³¦à³«": 7156,
      "à²Ĺà²¢à²¦": 7157,
      "Ġà²ªà²¥à²¸": 7158,
      "eshwara": 7159,
      "}}": 7160,
      "ä»": 7161,
      "à²ķà²ł": 7162,
      "à²£à²¯à²µ": 7163,
      "à²¦à²°à²®": 7164,
      "à²¶à²°à²¤": 7165,
      "Ġà²°à²Ĺà²³": 7166,
      "Ġà²¬à²°à²¹à²µ": 7167,
      "à²ªà²¨à²µà²°à²¨": 7168,
      "Ġà²ķà²£à²Ĺà²³à²¨": 7169,
      "à³«à³ª": 7170,
      "104": 7171,
      "ĠGowda": 7172,
      "Ġ240": 7173,
      "Ġvi": 7174,
      "plet": 7175,
      "ĠSKUPD": 7176,
      "Ã¶": 7177,
      "à²³à²¤à²¨à²¦": 7178,
      "Ġ1956": 7179,
      "str": 7180,
      "Ġ122": 7181,
      "à³«à³§": 7182,
      "ession": 7183,
      "AK": 7184,
      "Com": 7185,
      "Ü¹": 7186,
      "à³Ĥ;": 7187,
      "à²£à²¸à²¨": 7188,
      "Ġà²İà²®à²°": 7189,
      "Ġà²¦à²µ": 7190,
      "à²Ńà²ķà²°": 7191,
      "Ġdeath": 7192,
      "eshop": 7193,
      "à°¿": 7194,
      "à²Ĺà²¡à²²": 7195,
      "à²¹à²Ĺà²³à²²": 7196,
      "any": 7197,
      "anath": 7198,
      "Ġà²īà²ªà²Ń": 7199,
      "icial": 7200,
      "Ġ111": 7201,
      "ĠHar": 7202,
      "ãģ¯": 7203,
      "Ġ1976": 7204,
      "Ġhel": 7205,
      "UI": 7206,
      "Ġud": 7207,
      "à²²à²ĸ": 7208,
      "à²²à²®à²£": 7209,
      "à²ķà²ªà²°": 7210,
      "à²¯à²¯à²¦": 7211,
      "à²°à²Ĺà²¨": 7212,
      "Ġdem": 7213,
      "ĠWeb": 7214,
      "artment": 7215,
      "formation": 7216,
      "IM": 7217,
      "June": 7218,
      "Un": 7219,
      "ÂĶ": 7220,
      "à³Ĭ'": 7221,
      "Ġà²īà²Ń": 7222,
      "arov": 7223,
      "à²¨à²¸à²¦à²²": 7224,
      "ãģ¦": 7225,
      "à²¾âĢ¦.": 7226,
      "Me": 7227,
      "Â·": 7228,
      "à²¨à²Ĺà²£à²¨": 7229,
      "Ġà²ħà²ļà²²": 7230,
      "Ġà²¦à²³à²µ": 7231,
      "à²ªà²°à²¨": 7232,
      "Ġmm": 7233,
      "Ġà²¨à²Ĺà²°à²Ĺà²³à²¨": 7234,
      "Ġà²¨à²Ĺà²¦à²¨": 7235,
      "ĠBM": 7236,
      "ĠAM": 7237,
      "ĠPanch": 7238,
      "à³«à³¨": 7239,
      "à³Ĩ'.": 7240,
      "uman": 7241,
      "123": 7242,
      "ACME": 7243,
      "Ġrelease": 7244,
      "ĠHomeshop": 7245,
      "tv": 7246,
      "Ġ\\": 7247,
      "à²¹à²°à²ķ": 7248,
      "à²¤à²µà²ķ": 7249,
      "à²Ĺà²¦à²µà²¨": 7250,
      "Ġà²®à²²à²¬": 7251,
      "à¤ª": 7252,
      "etails": 7253,
      "à³Ńà³©": 7254,
      "ograph": 7255,
      "à³ģ\".": 7256,
      "à³ģâĢĿ.": 7257,
      "Ġjo": 7258,
      "Ġà²Ĩà²¡à²¦": 7259,
      "à²°à²£à²Ĺà²³à²²": 7260,
      "à²ľà²¨à²°à²²": 7261,
      "ĠKal": 7262,
      "Ġà²Ĳà²µ": 7263,
      "ones": 7264,
      "Ġtoday": 7265,
      "ĠLe": 7266,
      "Ġà²ļà²²à²¨à²¶": 7267,
      "à²¨à²¬à²¸à²µ": 7268,
      "ĠTeam": 7269,
      "Ġà²ħà²°à²ķà²²à²Ĺ": 7270,
      "çĶ": 7271,
      "Ġà²ĩà²Łà²Ĺ": 7272,
      "Ġà²Īà²ľà²²": 7273,
      "à²Ĺà²²à²¦à²²": 7274,
      "à²¤à²µà²³": 7275,
      "à³¦à³§": 7276,
      "à²µà²²à²¯": 7277,
      "à²Īà²°": 7278,
      "Ġà²ħà²¸à²¹à²ķ": 7279,
      "Ġrem": 7280,
      "Ġprotest": 7281,
      "oci": 7282,
      "çļĦ": 7283,
      "EV": 7284,
      "à²¨à²¯à²µ": 7285,
      "à²³à²¨à²µ": 7286,
      "à³Ĥ'": 7287,
      "à²¸à²°à²¹à²³": 7288,
      "à²¬à²°à²¹à²¦": 7289,
      "à²Ĺà²£à²Ĺà²³": 7290,
      "Ġà²ķà²¥à²ķ": 7291,
      "Ġbut": 7292,
      "egowda": 7293,
      "Ġà²Ĩà²¯à²¤à²ª": 7294,
      "à²¡à²¤à²ķ": 7295,
      "Ġà²²à²Ł": 7296,
      "Ġà²¸à²°à²³à²Ĺ": 7297,
      "ĠTwitter": 7298,
      "Ġâĺħ": 7299,
      "Ġlo": 7300,
      "ÑĤÐ¸": 7301,
      "à³ģâĢ¦!": 7302,
      "à³ĨâĢ¦!": 7303,
      "ights": 7304,
      "ðŁĮĪ": 7305,
      "NL": 7306,
      "cre": 7307,
      "wad": 7308,
      "à²²à²¹à²°à²£": 7309,
      "anesh": 7310,
      "à²Ĩà²¸à²ķ": 7311,
      "Ġà²Ĳà²¯": 7312,
      "Ġà²°à²¸à²µ": 7313,
      "âĢĿ,": 7314,
      "à²®à²łà²¦à²²": 7315,
      "ĠPrajavani": 7316,
      "ĠRFID": 7317,
      "à²¦à²¯à²¸": 7318,
      "Ġà²§à²¡": 7319,
      "à²ķà²²à²¨à²ķ": 7320,
      "Ġà²īà²ªà²ļà²°": 7321,
      "Ġà²İà²¸à²³": 7322,
      "Ġà²¹à²³à²¸": 7323,
      "ĠSS": 7324,
      "ĠSub": 7325,
      "ĠBoss": 7326,
      "à³ģ?:": 7327,
      "Ġ112": 7328,
      "Ġà²ľà²²à²§": 7329,
      "à³Ńà³¬": 7330,
      "Ġï¿½ï¿½ï¿½ï¿½ï¿½ï¿½ï¿½ï¿½ï¿½ï¿½": 7331,
      "à²¾..!": 7332,
      "Ġcomment": 7333,
      "à²Ĥ...": 7334,
      "Ġà²¤à²Łà²¦à²²": 7335,
      "à²ĸà²°à²¦": 7336,
      "à²ªà²¨à²µ": 7337,
      "Ġ550": 7338,
      "à²·à²°à²Ĺà²³à²²": 7339,
      "à²¢à²Ĺ": 7340,
      "roid": 7341,
      "Ġ1964": 7342,
      "ĠâĨĴ": 7343,
      "An": 7344,
      "PU": 7345,
      "code": 7346,
      "à²¯à²¬à²¦": 7347,
      "Ġà²ĵà²Ĺ": 7348,
      "ĠRep": 7349,
      "Ġ190": 7350,
      "ĠSal": 7351,
      "à²¯à²£à²®": 7352,
      "etrol": 7353,
      "à³Ńà³¨": 7354,
      "à²Łà²¡à²Ĺà²³à²²": 7355,
      "ĠWith": 7356,
      "ãĥ³": 7357,
      "ï¼Į": 7358,
      "riage": 7359,
      "bi": 7360,
      "ye": 7361,
      "à²¦à²Ĺà²¤": 7362,
      "à²ľà²Ńà²µà²¨à²¦": 7363,
      "Ġà²¶à²°à²µ": 7364,
      "à²¤à²°à²¤": 7365,
      "à²Īà²ľ": 7366,
      "onth": 7367,
      "alth": 7368,
      "Ġà²¬à²¸à²µà²³": 7369,
      "Ġà²Ķà²¨": 7370,
      "ÑģÑı": 7371,
      "ĠChief": 7372,
      "ĠOctober": 7373,
      "BJP": 7374,
      "ghest": 7375,
      "uary": 7376,
      "à²µà²²à²µ": 7377,
      "à²Ńà²Łà²ķ": 7378,
      "Ġà²¯à²µ": 7379,
      "ĠTal": 7380,
      "Ġfestival": 7381,
      "à²¨à²Ĺà²°à²Ĺà²³": 7382,
      "Ġà³ªà³¯": 7383,
      "à²³à²¯à²¦à²²": 7384,
      "Ġà²ªà²¥à²¦": 7385,
      "à²¹à²¤à²µ": 7386,
      "Ġà²¤à²Ĺà²¡": 7387,
      "à²ľà²¨à²²": 7388,
      "à²łà²¯": 7389,
      "âĢįâĢį": 7390,
      "à²µà²ķà²°à²²": 7391,
      "Ġlist": 7392,
      "Ġ1981": 7393,
      "Ġparty": 7394,
      "ĠÐ·Ð°": 7395,
      "ci": 7396,
      "Ġà³Ģ": 7397,
      "à³ģà³ģ": 7398,
      "à²ķà²°à²µà²°": 7399,
      "à²¬à²°à²Ĺà²³": 7400,
      "Ġà²ħà²µà²³à²²": 7401,
      "à³Ĩà³Ĥ,": 7402,
      "à²Ĵà²³à²Ĺ": 7403,
      "à²¿'.": 7404,
      "Ġadd": 7405,
      "rovers": 7406,
      "]]": 7407,
      "Ġà²®à²«": 7408,
      "Ġà²ķà²¦à²²": 7409,
      "Ġà²¶à²µà²Ĺà²³": 7410,
      "à²®à²¨à²¬": 7411,
      "Ġà²Ĩà²¤à²¨à²²": 7412,
      "Ġcandid": 7413,
      "Ġ127": 7414,
      "Ġaward": 7415,
      "ĠGen": 7416,
      "alleng": 7417,
      "Ġ1965": 7418,
      "blog": 7419,
      "Ġâĸº": 7420,
      "!âĢĻ": 7421,
      "DP": 7422,
      "ez": 7423,
      "Ġif": 7424,
      "à²¸à²¤à²¨à²¦": 7425,
      "Ġà²®à²²à²µ": 7426,
      "Ġà²¨à²°à²Ńà²ķ": 7427,
      "à²ľà²ľ": 7428,
      "Ġà²Ńà²°à²ª": 7429,
      "à²¦à²¨à²µà²¨": 7430,
      "Ġà²ħà²ªà²§à²®à²¨": 7431,
      "à²µà²¹à²¨à²¦": 7432,
      "ĠShar": 7433,
      "Ġà²¬à²²à²¹": 7434,
      "ione": 7435,
      "Ġbollywood": 7436,
      "ript": 7437,
      "Ġ1969": 7438,
      "à²ªà²¡à²²": 7439,
      "Ġà²µà²¶à²µ": 7440,
      "à²·à²ªà²¡": 7441,
      "à²®à²¨à²ķà²Ł": 7442,
      "ane": 7443,
      "à²£à²¦à²¤": 7444,
      "Ġà²ªà²¦à²ª": 7445,
      "Ġà²ıà²ķà²²à²µ": 7446,
      "ĠSep": 7447,
      "à²®à²²à²Ĺ": 7448,
      "ĠDownload": 7449,
      "Ġà²¬à²¡à²µà²¨": 7450,
      "ĠâĤ¨": 7451,
      "Ġkar": 7452,
      "à²Ŀà²¡": 7453,
      "ĠLive": 7454,
      "Ġà³§à³«à³¦": 7455,
      "rt": 7456,
      "à²ķà²ªà²¡": 7457,
      "à³Ĩ,âĢĻâĢĻ": 7458,
      "à²İà²İ": 7459,
      "Ġà²¸à²®à²°à²¦": 7460,
      "Ġà²Ĳà²°à²¨": 7461,
      "Ð¾Ñģ": 7462,
      "Pz": 7463,
      "yn": 7464,
      "Ġà²¶à²®à²¨à²ķ": 7465,
      "Ġà²ıà²¦": 7466,
      "à²°à²¹à²Ĺ": 7467,
      "ats": 7468,
      "ĠBigg": 7469,
      "à³Ĩ?:": 7470,
      "Ġ1800": 7471,
      "Ġreg": 7472,
      "ĠâĢ¦.": 7473,
      "Ġjan": 7474,
      "Ġ1974": 7475,
      "ocument": 7476,
      "Ġany": 7477,
      "ĠÐ½Ðµ": 7478,
      "Ġà²¨à²³à²¨à²³": 7479,
      "NA": 7480,
      "ton": 7481,
      "à²µà²¯à²¤": 7482,
      "à²ķà²ļà²ķ": 7483,
      "à³Ģ..": 7484,
      "à²°à²£à²ķà²°": 7485,
      "Ġ(âĢĺ": 7486,
      "à²µà²£à²¦": 7487,
      "Ġà²īà²ªà²¨à²¦": 7488,
      "à²¸à²¦à²µà²°": 7489,
      "à²²à²Ńà²Ń": 7490,
      "Ġà²ĩà²³à²ķà²²": 7491,
      "à³į'.": 7492,
      "à²¹à²¸à²µà²¨": 7493,
      "oting": 7494,
      "Ġher": 7495,
      "à²ĵà²¡": 7496,
      "ãĤĴ": 7497,
      "Ġà²ħà²µà²ĺà²¡à²Ĺà²³": 7498,
      "QL": 7499,
      "hen": 7500,
      "so": 7501,
      "uch": 7502,
      "à²²à²®à²ª": 7503,
      "à²£à²¬à²£": 7504,
      "à²·à²£à²®": 7505,
      "Ġà²ķà²²à²°à²µ": 7506,
      "à²ªà²¨à²µà²¨": 7507,
      "Ġà²Ĭà²°à²µà²°": 7508,
      "story": 7509,
      "à²Ĵà²°": 7510,
      "Ġà²ľà²µà²¬": 7511,
      "ipo": 7512,
      "à²·à²¸à²¨": 7513,
      "à²ľà²°à²¤": 7514,
      "à²¤à²°à²¸": 7515,
      "Ġ230": 7516,
      "Ġà²ĸà²¬à²°": 7517,
      "Ġmus": 7518,
      "à²°à²ľà²Ĺà²¤": 7519,
      "Ġ119": 7520,
      "els": 7521,
      "Ġ143": 7522,
      "ĠLok": 7523,
      "Ġà¤®": 7524,
      "ðŁĺ": 7525,
      "ĠMarch": 7526,
      "Pr": 7527,
      "ven": 7528,
      "±¨": 7529,
      "à²¨à²¯à²¦à²²": 7530,
      "à²µà²¨à²²": 7531,
      "à³ģ,\"": 7532,
      "à²°à²¦à²¬": 7533,
      "Ġà²¸à²®à²¯à²¦à²µà²°": 7534,
      "ady": 7535,
      "Ġmysuru": 7536,
      "à²ľà²ķà²µ": 7537,
      "ĠSah": 7538,
      "ĠCor": 7539,
      "ices": 7540,
      "esha": 7541,
      "Ġbet": 7542,
      "à²ªà²£à²ľ": 7543,
      "Ġà³¬à³«": 7544,
      "Ġà²¬à²¡à²¤à²¨à²¦à²²": 7545,
      "à²¬à²¹à²³à²·": 7546,
      "Ġreddy": 7547,
      "ashmir": 7548,
      "Ø¹": 7549,
      "à²ļà²ķà²¤": 7550,
      "Ġà²Ĺà²°à²Ĺ": 7551,
      "à²İà²°": 7552,
      "à²«à²¸": 7553,
      "à²ħà²µà²¤": 7554,
      "...\"": 7555,
      "à³Ĩà³Ĥà³ķ,": 7556,
      "ĠDirector": 7557,
      "à³¬à³¨": 7558,
      "Ġgirl": 7559,
      "abinet": 7560,
      "ours": 7561,
      "Ġ1979": 7562,
      "IVE": 7563,
      "Ø³": 7564,
      "Ùĩ": 7565,
      "à²Łà²¶": 7566,
      "Ġà²¹à²µà²¨": 7567,
      "à²ļà²°à²¨": 7568,
      "Ġà²¤à²¹": 7569,
      "à²ľà²°à²¨": 7570,
      "à²ĸà²Ĺ": 7571,
      "Ġà²«à²³": 7572,
      "Ġà²ªà²¡à²¦": 7573,
      "Ġmedia": 7574,
      "à²ªà²ķà²¦à²²": 7575,
      "à²¬à²³à²¸": 7576,
      "Ġ1920": 7577,
      "Ġlove": 7578,
      "Ġonline": 7579,
      "Ġà³¨à³¦à³¦à³ª": 7580,
      "118": 7581,
      "à³ģ|": 7582,
      "à³ģ}": 7583,
      "à²¤à²³à²¤": 7584,
      "à²Ĺà²°à²µà²¨": 7585,
      "Ġà²¤à²®à²Ł": 7586,
      "à²Ĺà²¦à²¤": 7587,
      "Ġà²īà²ªà²ľ": 7588,
      "ĠNot": 7589,
      "ĠBr": 7590,
      "Ġà²Ĩà²¶à²¯à²Ĺà²³à²¨": 7591,
      "Ġbook": 7592,
      "à²Łà²£à²µà²¨": 7593,
      "ishn": 7594,
      "Ġopen": 7595,
      "ĠOnline": 7596,
      "Ġ}": 7597,
      "à²ļà²Łà²Ĺà²³": 7598,
      "à²§à²§à²°": 7599,
      "à²İà²¯": 7600,
      "Ġà²Łà²ª": 7601,
      "à³į.!": 7602,
      "Ġà²İà²¸à²ķ": 7603,
      "Ġ6000": 7604,
      "Ġà²Ĵà²³à²¬": 7605,
      "ĠSe": 7606,
      "Ġser": 7607,
      "Ġkhan": 7608,
      "Ġinv": 7609,
      "Ġ256": 7610,
      "riend": 7611,
      "Ġiss": 7612,
      "ugen": 7613,
      "Ð´Ð°": 7614,
      "120": 7615,
      "Code": 7616,
      "à³Ĥ!": 7617,
      "Ġà²ªà²Ĺ": 7618,
      "Ġà²¶à²¹à²¬": 7619,
      "ĠSec": 7620,
      "omb": 7621,
      "Ġdep": 7622,
      "ĠHome": 7623,
      "ÑĢÑĥ": 7624,
      "ered": 7625,
      "ĠBBMP": 7626,
      ")(": 7627,
      "à²¶à²µà²²": 7628,
      "Ġà²¦à²¨à²Ĺà²³à²¨": 7629,
      "à²ĸà²°à²Ĺà²³": 7630,
      "ĠKerala": 7631,
      "à²Īà²¤": 7632,
      "ĠBas": 7633,
      "ĠDo": 7634,
      "Ġset": 7635,
      "ilk": 7636,
      "Ġyeddyurappa": 7637,
      "Ġà²«à²²à²ķà²µà²¨": 7638,
      "Ġà²°à²Ńà²¸à²¦": 7639,
      "ÑĨÐ¸": 7640,
      "gn": 7641,
      "iy": 7642,
      "{\"": 7643,
      "Ġà¥¤à¥¤": 7644,
      "Ġà²®à²ľà²µ": 7645,
      "Ġà²¨à²°à²µ": 7646,
      "Ġà²Īà²¡à²¨": 7647,
      "Ġà²ħà²µà²¸à²°à²¦à²²": 7648,
      "à²¦à²ķà²Ł": 7649,
      "Ġà²Ĩà²¦à²µà²°": 7650,
      "à²ªà²ķà²Ĺà²³": 7651,
      "ĠDistrict": 7652,
      "Ġà²ķà²ļà²Ĺ": 7653,
      "Ġinf": 7654,
      "Ġ145": 7655,
      "ĠÐ³": 7656,
      "Ġtheir": 7657,
      "Ġstat": 7658,
      "à®¿": 7659,
      "à²ĭà²£": 7660,
      "ier": 7661,
      "à²¡à²§": 7662,
      "à³ĩ;": 7663,
      "Ġà²¬à²Ĺà²²": 7664,
      "à²¹à²¸à²µ": 7665,
      "Ġà²İà²İà²¨": 7666,
      "Ġà²ħà²µà²°à²¤": 7667,
      "Ġà²§à²¨à²²": 7668,
      "à²ĩà²ķ": 7669,
      "Ġà²ķà²¡à²¬": 7670,
      "Ġcam": 7671,
      "ason": 7672,
      "Ġà²Ĩà²Łà²Ĺà²³à²²": 7673,
      "ĠWom": 7674,
      "à³ĨâĢĿ.": 7675,
      "que": 7676,
      "ĠâĻ¥": 7677,
      "ĠÙħ": 7678,
      "à²µà²Ĺà²³à²²": 7679,
      "Ġà²¶à²µà²°": 7680,
      "à²ķà²°à²¤": 7681,
      "à²²à²ķà²³": 7682,
      "asht": 7683,
      "1996": 7684,
      "à²ªà²ķà²°à²£à²Ĺà²³à²¨": 7685,
      "à²®à²µà²²": 7686,
      "à²µà²£à²¸": 7687,
      "adev": 7688,
      "à²¡à²¬à²¯à²¸": 7689,
      "Ġà²ıà²¨à²°": 7690,
      "Ġà²ķà²£à²ľ": 7691,
      "à²³à²¬à²¯à²¸": 7692,
      "à²¨à²µà²¨à²¨": 7693,
      "Ġcor": 7694,
      "à²ľà²¯à²ļ": 7695,
      "à²¤à²¸à²µà²¨": 7696,
      "à²¿?âĢĻ": 7697,
      "ĠRaghav": 7698,
      "CM": 7699,
      "ful": 7700,
      "Ġà²«à²Ł": 7701,
      "Ġà²Ĳà²µà²°à²¨": 7702,
      "icide": 7703,
      "ĠURL": 7704,
      "Ġ1968": 7705,
      "ĠÐ¿ÑĢ": 7706,
      "110": 7707,
      "LE": 7708,
      "site": 7709,
      "à²¬à²·": 7710,
      "Ġà²Īà²Ł": 7711,
      "à²¦à²¨à²µ": 7712,
      "ï¿½Ö": 7713,
      "à²°à²¡à²¬": 7714,
      "Ġ1930": 7715,
      "Ġ1957": 7716,
      "Ġà²¬à²²à²Ĺà²¡": 7717,
      "Ġsho": 7718,
      "leg": 7719,
      "à³ĩ?âĢĿ": 7720,
      "à³¬à³§": 7721,
      "Ġ165": 7722,
      "Ġ139": 7723,
      "udi": 7724,
      "Ġà²ľà²Ĺà²³à²¦": 7725,
      "ãĥ»": 7726,
      "Ġnext": 7727,
      "Ġà²¹à²ªà²¹à²ª": 7728,
      "âĸ¬âĸ¬âĸ¬âĸ¬": 7729,
      "pare": 7730,
      "Ġu": 7731,
      "à²®à²¨à²²": 7732,
      "Ġà²µà²¯à²°": 7733,
      "à²ļà²¨à²µ": 7734,
      "Ġà²¬à²°à²¹à²ķ": 7735,
      "à²ķà²°à²£à²Ĺà²³à²¨": 7736,
      "Ġà²ĵà²Łà²Ĺ": 7737,
      "ĠMedia": 7738,
      "Ġweb": 7739,
      "128": 7740,
      "Ġgowda": 7741,
      "Hz": 7742,
      "Å£": 7743,
      "Ø©": 7744,
      "à²ļà²¯à²¸": 7745,
      "Ġà²Ńà²¡": 7746,
      "Ġà²īà²§": 7747,
      "à²°à²®à²ľ": 7748,
      "Ġà²Ĩà²Ĺà²°": 7749,
      "Ġà²ĵà²¦à²¦": 7750,
      "à³ģ?]": 7751,
      "à²¦à²µà²¨à²²": 7752,
      "ãģ¨": 7753,
      "auvery": 7754,
      "Ð»Ñı": 7755,
      "ĠArt": 7756,
      "October": 7757,
      "350": 7758,
      "PC": 7759,
      "Too": 7760,
      "ba": 7761,
      "uild": 7762,
      "Ġà²ĩà²¥": 7763,
      "à²§à²³": 7764,
      "Ġà²ħà²¨à²ª": 7765,
      "à²°à²®à²ªà²Ł": 7766,
      "à²°à²¸à²¦": 7767,
      "Ġà²ħà²°à²ļ": 7768,
      "Ġà²Ĳà²Ĳà²İ": 7769,
      "ĠNE": 7770,
      "Ġthan": 7771,
      "Ġà²Ĩà²¶à²¯à²ķ": 7772,
      "ĠAD": 7773,
      "uring": 7774,
      "1990": 7775,
      "âĸº": 7776,
      "à²¡à²¡": 7777,
      "Ġà²ļà²Łà²µ": 7778,
      "alition": 7779,
      "à³Ĭà³ķ,": 7780,
      "urity": 7781,
      "urrent": 7782,
      "à²¹à²¸à²Ĺà²³": 7783,
      "ĠWW": 7784,
      "Ġret": 7785,
      "ĠBureauà²ª": 7786,
      "ellary": 7787,
      "Ġà²ħà²ªà²¨à²Ĺà²¦": 7788,
      "LV": 7789,
      "à²¦à²µà²²": 7790,
      "à²¸à²Ł": 7791,
      "à²¡à²¶": 7792,
      "Ġà²¬à²£à²ķ": 7793,
      "Ġà²ĩà²İà²¸": 7794,
      "Ġà²¶à²®à²¨à²µ": 7795,
      "à²Łà²ķà²¦à²µà²°": 7796,
      "Ġà²Ĳà²ĵà²İà²¸": 7797,
      "Ġma": 7798,
      "Ġ420": 7799,
      "Ġbo": 7800,
      "ĠTamil": 7801,
      "1980": 7802,
      "à¥¥": 7803,
      "ĠVo": 7804,
      "Ġlok": 7805,
      "avali": 7806,
      "elect": 7807,
      "TR": 7808,
      "Th": 7809,
      "ĠÑĤ": 7810,
      "à²²à²¬à²²": 7811,
      "à²®à²²à²µ": 7812,
      "à²¯à²¨à²µ": 7813,
      "Ġà²ªà²°à²®à²¹": 7814,
      "à²ĩà²İà²²": 7815,
      "à²°à²³à²¯à²¦": 7816,
      "à²Łà²¦à²·": 7817,
      "ĠAC": 7818,
      "à³Ĩ...\"": 7819,
      "Ġair": 7820,
      "à³Ńà³¯": 7821,
      "Ġà³©à³¦à³¦": 7822,
      "Ġ279": 7823,
      "Ġï¿½ï¿½ï¿½ï¿½ï¿½ï¿½ï¿½ï¿½ï¿½": 7824,
      "ãĤĭ": 7825,
      "Ġ371": 7826,
      "orgCode": 7827,
      "ĠVideo": 7828,
      "à³ģ}.": 7829,
      "ti": 7830,
      "à²µà²®à²Ł": 7831,
      "à²¤à²°à²·": 7832,
      "Ġà²ħà²¨à²¤": 7833,
      "à²¸à²¨à²Ĺà²³à²¨": 7834,
      "Ġà²Ĭà²¤": 7835,
      "style": 7836,
      "Ġsal": 7837,
      "agement": 7838,
      "à³®à³©": 7839,
      "ãģŁ": 7840,
      "Ġchild": 7841,
      "UN": 7842,
      "à²¡à²ķà²°": 7843,
      "à³Ģ?": 7844,
      "Ġà²Ĺà²®à²ķ": 7845,
      "à²Ńà²¹": 7846,
      "Ġà²²à²ĸ": 7847,
      "à²«à²²à²¨": 7848,
      "à³¦à³ª": 7849,
      "à²¶à²µà²®": 7850,
      "ĠDep": 7851,
      "Ġson": 7852,
      "olar": 7853,
      "ĠLayout": 7854,
      "Ġgovt": 7855,
      "à²¶à²²à²Ĺà²³à²¨": 7856,
      "à²¤à²ķà²°à²µ": 7857,
      "ĠCrime": 7858,
      "GF": 7859,
      "Ġ%": 7860,
      "à³ĨâĢŀ": 7861,
      "à²µà²¨à²ļà²°": 7862,
      "à²ĸà²¨à²Ĺà²³à²²": 7863,
      "à²ĺà²¦à²µà²°": 7864,
      "ananda": 7865,
      "à²ħà²¸à²²": 7866,
      "Ġà²īà²¦à²¯à²ķ": 7867,
      "à²¦à²ķà²¦": 7868,
      "Ġà²¨à²Ĺà²£": 7869,
      "ĠIII": 7870,
      "let": 7871,
      "ĠAir": 7872,
      "Ġback": 7873,
      "Ġknow": 7874,
      "oud": 7875,
      "Ġhouse": 7876,
      "assan": 7877,
      "Ġ1966": 7878,
      "Ġà²°à²¥à²¬": 7879,
      "à·Ģ": 7880,
      "âĢ¦âĢ¦âĢ¦âĢ¦": 7881,
      "roup": 7882,
      "anguage": 7883,
      "HN": 7884,
      "à²ªà²°à²£": 7885,
      "Ġà²¦à²¡à²ķ": 7886,
      "à²¤à²°à²Ń": 7887,
      "à²ľà²¨à²°à²¨": 7888,
      "Ġ310": 7889,
      "omarov": 7890,
      "à²Ľà²°": 7891,
      "ĠBollywood": 7892,
      "amma": 7893,
      "Ġfarm": 7894,
      "ump": 7895,
      "ãģĮ": 7896,
      "à²Ķà²·à²§": 7897,
      "erest": 7898,
      "hyper": 7899,
      "urns": 7900,
      "agged": 7901,
      "Ġstudents": 7902,
      "ML": 7903,
      "Ë«": 7904,
      "à²·à²°à²µà²¨": 7905,
      "à²ļà²®à²¸": 7906,
      "à²µà²°à²®": 7907,
      "Ġà²°à²ª": 7908,
      "à²¤à²°à²Ĺà²³à²²": 7909,
      "à²¯à²µà²§": 7910,
      "à²Ĩà²ľ": 7911,
      "à²¾?'": 7912,
      "à³¯à³®": 7913,
      "Ġà²¶à²µà²Ĺà²³à²¨": 7914,
      "},{\"": 7915,
      "?!": 7916,
      "DE": 7917,
      "IR": 7918,
      "Ġà²ľà²£": 7919,
      "à²ķà²°à²µà²¨": 7920,
      "Ġà²¸à²®à²¯à²ª": 7921,
      "Ġà²Ĩà²Ĺà²¸à²¦à²²": 7922,
      "rer": 7923,
      "à²¸à²µà²Ĺà²³à²²": 7924,
      "à²Ĵà²Ĺà²³": 7925,
      "ĠSm": 7926,
      "Ġà²¬à²¡à²ª": 7927,
      "Ġà²¨à²µà²Ĺ": 7928,
      "Ġà²Ĺà²¡à²¸": 7929,
      "à²Łà²£à²¶": 7930,
      "ĠWater": 7931,
      "thy": 7932,
      "alls": 7933,
      "Ġ1961": 7934,
      "BA": 7935,
      "yl": 7936,
      "æĸ": 7937,
      "à²ļà²®à²ļ": 7938,
      "à²¯à²µà²¯à²¸": 7939,
      "ĠReg": 7940,
      "Ġ1952": 7941,
      "à²²à²Ńà²Ĺ": 7942,
      "ĠMysore": 7943,
      "ĠAcc": 7944,
      "Ġà²«à²²à²Ĺà²³": 7945,
      "Ġpradesh": 7946,
      "Ġà³§à³¯à³¯à³¦": 7947,
      "Ġwomen": 7948,
      "Ð¾Ð³Ð¾": 7949,
      "\"},{\"": 7950,
      "kal": 7951,
      "à²²à²°à²¦": 7952,
      "à²·à²¨à²¨": 7953,
      "à²°à²¦à²®": 7954,
      "Ġmed": 7955,
      "à²¨à²µà²¨à²¦": 7956,
      "ĠSu": 7957,
      "à³§à³¦à³¦": 7958,
      "ulu": 7959,
      "indows": 7960,
      "CA": 7961,
      "ORE": 7962,
      "à²µà²¯à²¦": 7963,
      "à²³à²¨à²Ĺà²³": 7964,
      "à²£à²¤à²¨à²¦": 7965,
      "à³ĭ\"": 7966,
      "à²¦à²°à²¸": 7967,
      "à²Ńà²µà²¤": 7968,
      "à²¯à²¦à²·": 7969,
      "Ġà²¬à²³à²Ĺà²ķ": 7970,
      "à²Īà²¸": 7971,
      "à²µà²¹à²¨à²ķ": 7972,
      "diac": 7973,
      "à²ķà²·à²µ": 7974,
      "à²Ĺà²£à²µà²¨": 7975,
      "ĠBo": 7976,
      "edd": 7977,
      "ĠFeb": 7978,
      "à²°à²Łà²µà²°": 7979,
      "ĠGu": 7980,
      "ovo": 7981,
      "Ġ[[": 7982,
      "ĠVirat": 7983,
      "Ġà¤ª": 7984,
      "Ġà²¨à²°à²ķà²¦": 7985,
      "ransp": 7986,
      "OM": 7987,
      "min": 7988,
      "right": 7989,
      "Ä¾": 7990,
      "Ġour": 7991,
      "Ġà²°à²¹à²¦": 7992,
      "Ġà²®à²¨à²µà²¨": 7993,
      "à²¦à²¨à²Ĺà²³": 7994,
      "Ġà²¬à²³à²Ĺà²µà²¨": 7995,
      "à²Łà²°à²Ĺ": 7996,
      "Ġà²ıà²ķà²¸à²¦à²¸": 7997,
      "ĠBest": 7998,
      "Ġà²¤à²¡à²®": 7999,
      "Ġphot": 8000,
      "ĠGood": 8001,
      "ills": 8002,
      "Ġà³¦à³¬": 8003,
      "à¶º": 8004,
      "roversy": 8005,
      "Im": 8006,
      "Ã¯": 8007,
      "à²ľà²Ĺà²³à²²": 8008,
      "à²ľà²²à²ķ": 8009,
      "Ġà²¡à²²": 8010,
      "Ġà²ķà²°à²Ĺà²¦": 8011,
      "à³¦à³¨": 8012,
      "Ġà²®à²²à²Ĺà²¬": 8013,
      "ĠSa": 8014,
      "à²īà²·": 8015,
      "Ġà²¬à²¡à²ľà²¨à²°": 8016,
      "Ġ174": 8017,
      "à³ģ'.": 8018,
      "ĠWhatsApp": 8019,
      "ubb": 8020,
      "âľ«": 8021,
      "à²®à²¸à²Ń": 8022,
      "Ġà²¹à²¯": 8023,
      "à²·à²¯à²°": 8024,
      "Ġà²İà²¡à²¤": 8025,
      "à³ģ,[": 8026,
      "Ġà²ľà²¨à²¨à²µ": 8027,
      "à²°à²¹à²¸": 8028,
      "à²ļà²¨à²¹à²³": 8029,
      "ene": 8030,
      "ĠSar": 8031,
      "Ġchar": 8032,
      "Ġdel": 8033,
      "à³¯à³«": 8034,
      "Ġï¿½ï¿½ï¿½ï¿½ï¿½ï¿½ï¿½ï¿½ï¿½ï¿½ï¿½ï¿½": 8035,
      "hankar": 8036,
      "ĠAwards": 8037,
      "à²®à²ķà²²": 8038,
      "Ġà²µà²³": 8039,
      "Ġà²¸à²®à²°à²ķ": 8040,
      "Ġà²¸à²°à²µà²¨": 8041,
      "à²ĩà²Ĺ": 8042,
      "Ġà²¬à²¹à²°": 8043,
      "Ġà²ĵà²¬": 8044,
      "Ġso": 8045,
      "Ġ121": 8046,
      "Ġvijay": 8047,
      "160": 8048,
      "ÑĩÐµ": 8049,
      "akshmi": 8050,
      "Ġlaunch": 8051,
      "chnology": 8052,
      "Ġï»¿": 8053,
      "ux": 8054,
      "ĠÏ": 8055,
      "à²²à²®à²Ł": 8056,
      "à²µà²¸à²¦": 8057,
      "à²¸à²®à²Ĺ": 8058,
      "à²³à²ªà²¨": 8059,
      "à²®à²«": 8060,
      "Ġà²İà²Ĩà²°": 8061,
      "Ġà²ľà²²à²¦": 8062,
      "Ġà²®à²¤à²¬": 8063,
      "à²ĸà²¡": 8064,
      "ĠRE": 8065,
      "ĠNAB": 8066,
      "à²Ĳà²¯": 8067,
      "à²ļà²³à²µà²¨": 8068,
      "à³į\",": 8069,
      "Ġ{\\": 8070,
      "ĠThis": 8071,
      "rishn": 8072,
      "feren": 8073,
      "cess": 8074,
      "ty": 8075,
      "ze": 8076,
      "åĬ": 8077,
      "Ġà²¹à²¦à²ķ": 8078,
      "à³Ĩ.''": 8079,
      "Ġà²¦à²¯à²¨": 8080,
      "à²¸à²²à²¹": 8081,
      "à²°à²®à²Ĺ": 8082,
      "à²®à²¨à²®": 8083,
      "à³¦à³®": 8084,
      "Ġà²īà²ªà²¸à²®": 8085,
      "ĠRel": 8086,
      "Ġà²ħà²¸à²¤": 8087,
      "à²ªà²¦à²¦": 8088,
      "ĠIT": 8089,
      "Ġ151": 8090,
      "ĠFirst": 8091,
      "à³ģ...\"": 8092,
      "à²Ĺà²®à²ª": 8093,
      "highest": 8094,
      "111": 8095,
      "anga": 8096,
      "ĠComp": 8097,
      "Ġà²ħà²«à²ĺ": 8098,
      "1997": 8099,
      "itskannada": 8100,
      "board": 8101,
      "MV": 8102,
      "TH": 8103,
      "à³į_": 8104,
      "Ġà²¬à²Ĺà²°": 8105,
      "à²¤à²¦à²¨": 8106,
      "à²¨à²µà²¹à²ķ": 8107,
      "à²¦à²ķà²Ĺà²³": 8108,
      "à²Īà²¤à²¨": 8109,
      "ĠPU": 8110,
      "hika": 8111,
      "ĠLead": 8112,
      "ĠWhat": 8113,
      "Ġreality": 8114,
      "html": 8115,
      "Ġexam": 8116,
      "ĠInternational": 8117,
      "lowest": 8118,
      "hyperlink": 8119,
      "On": 8120,
      "SI": 8121,
      "WC": 8122,
      "che": 8123,
      "âĻ": 8124,
      "Ġob": 8125,
      "à²·à²¤à²¨à²¦": 8126,
      "Ġà²Ĩà²¡à²¬à²¹": 8127,
      "Ġà²ıà²³à²²": 8128,
      "ĠKir": 8129,
      "ĠKodagu": 8130,
      "à²Ĵà²¯": 8131,
      "ĠSl": 8132,
      "ĠMi": 8133,
      "less": 8134,
      "isch": 8135,
      "Ġ168": 8136,
      "à³ģ!)": 8137,
      "Ġà²Ĩà²µà²°à²£à²ķ": 8138,
      "ĠUd": 8139,
      "Ġà²¸à²¦à²¨à²ķ": 8140,
      "Ġà³¦à³ª": 8141,
      "ÃĢÃ": 8142,
      "Ġmurder": 8143,
      "DI": 8144,
      "En": 8145,
      "LO": 8146,
      "Ø¨": 8147,
      "à²¨à²§à²°": 8148,
      "Ġà²ķà²µà²¨à²µà²¨": 8149,
      "Ġà²ªà²¤à²¨à²¦": 8150,
      "à²£à²ķà²²": 8151,
      "à²ļà²°à²Ĺà²³": 8152,
      "Ġà²Ĺà²ľà²²": 8153,
      "à²ªà²°à²µà²°": 8154,
      "à³¦à³Ń": 8155,
      "Ġà²ĵà²ľ": 8156,
      "à²¤à²¹à²³": 8157,
      "à²ªà²ķà²¤": 8158,
      "Ġà²®à²¦à²ķà²°": 8159,
      "ĠBen": 8160,
      "ĠAc": 8161,
      "olic": 8162,
      "Ġdef": 8163,
      "à³ģ!!!": 8164,
      "osh": 8165,
      "ìĿ¼": 8166,
      "¿ª": 8167,
      "Ġel": 8168,
      "à²²à²Łà²¨": 8169,
      "à²³à²¤à²¨à²ķ": 8170,
      "à³Ĭ!": 8171,
      "à²ľà²²à²¦": 8172,
      "à²¦à²²à²Ĺà²³à²¨": 8173,
      "Ġà²ľà²µà²¹": 8174,
      "à²¤à²¦à²·": 8175,
      "Ġà²¬à²³à²Ĺà²¦à²²": 8176,
      "Ġà²§à²£": 8177,
      "à²¨à²µà²ķ": 8178,
      "omain": 8179,
      "omination": 8180,
      "à¤ľ": 8181,
      "Ġà²Ľà²²à²¦": 8182,
      "iral": 8183,
      "rozz": 8184,
      "ĠStud": 8185,
      "à²°à²¬à²°à²¬": 8186,
      "ffair": 8187,
      "à²¬à²³à²Ĺà²¦à²²": 8188,
      "750": 8189,
      "Ü¼": 8190,
      "Ġother": 8191,
      "Ġà²µà²£": 8192,
      "à²§à²°à²£": 8193,
      "Ġà²¦à²¦": 8194,
      "à³įâĢĮ!": 8195,
      "Ġà²ľà²¨à²¶à²ķ": 8196,
      "ĠSudeep": 8197,
      "Ġà²ħà²µà²³à²¦": 8198,
      "akes": 8199,
      "iter": 8200,
      "Ġà²ħà²Ĺà²°à²µ": 8201,
      "Ġ080": 8202,
      "Ġà²ªà²¯à²£à²¦": 8203,
      "Ġà²®à²¦à²°à²¸": 8204,
      "Komarov": 8205,
      "à²¡à²®à²Ł": 8206,
      "à²µà²¨à²¸": 8207,
      "à²¿.!": 8208,
      "ĠRem": 8209,
      "à²Ĥ.,": 8210,
      "ĠCross": 8211,
      "ract": 8212,
      "à²®à²¸à²®": 8213,
      "Ġ1600": 8214,
      "à³Ĩ!)": 8215,
      "Ġà³©à³¬": 8216,
      "à²ªà²ķà²°à²¨": 8217,
      "à²¿Â¨": 8218,
      "Ġà²ıà²ķà²µà²ļà²¨à²¦à²²": 8219,
      "MT": 8220,
      "pay": 8221,
      "Ġà³Ĩà²Ĥ": 8222,
      "Ġ).": 8223,
      "à²²à²Ĺà²¦": 8224,
      "à²Ĺà²®à²¨à²¦": 8225,
      "à²¬à²ķà²°": 8226,
      "Ġà²¸à²®à²·": 8227,
      "Ġmin": 8228,
      "à²¬à²³à²µ": 8229,
      "Ġà²¹à²³à²¤": 8230,
      "ĠSP": 8231,
      "Ġpat": 8232,
      "hant": 8233,
      "Ġstart": 8234,
      "à¶±": 8235,
      "structure": 8236,
      "EO": 8237,
      "hd": 8238,
      "á¹": 8239,
      "è®": 8240,
      "à²¯à²¤à²¨": 8241,
      "Ġà²¹à²Ĺà²°": 8242,
      "Ġà²¹à²µà²³": 8243,
      "Ġà²ªà²¡à²²": 8244,
      "Ġ210": 8245,
      "Ġà²ľà²¨à²ľà²¨": 8246,
      "Ġà²İà²°à²¡à²°à²·": 8247,
      "Ġà²īà²ªà²ĸ": 8248,
      "à²ķà²Łà²Ĺà²³": 8249,
      "à²¸à²¨à²¸à²Ń": 8250,
      "Ġà²Ĵà²³à²®": 8251,
      "à²ĥ.": 8252,
      "ico": 8253,
      "ĠInstit": 8254,
      "Ġdon": 8255,
      "à²¹à²¸à²®à²¯": 8256,
      "Ġrah": 8257,
      "oftware": 8258,
      "ĠShah": 8259,
      "DF": 8260,
      "rat": 8261,
      "Î¹": 8262,
      "Ġem": 8263,
      "à²¿à²¿": 8264,
      "à³ģâĢĺ": 8265,
      "à²¨à²¯à²µà²¨": 8266,
      "à³ĤâĢĮ": 8267,
      "Ġà²Ĺà²¤à²ķ": 8268,
      "à²ĸà²°à²ª": 8269,
      "Ġà²ħà²µà²°à²·": 8270,
      "ashi": 8271,
      "Ġbest": 8272,
      "Ġà²¶à²°à²£à²¬à²¸à²µ": 8273,
      "à²ľà²®à²ĸ": 8274,
      "amily": 8275,
      "Ġshiva": 8276,
      "ji": 8277,
      "kannadadalli": 8278,
      "pen": 8279,
      "Ġà²®à²°à²£à²µà²¨": 8280,
      "Ġà²¶à²²": 8281,
      "Ġà²ļà²Łà²ķ": 8282,
      "Ġà²Īà²µà²¤": 8283,
      "Ġà²²à²°": 8284,
      "Ġà²Łà²¯à²°": 8285,
      "Ġà²ľà²¨à²¨à²¦": 8286,
      "Ġà²ľà²¨à²¦à²Ł": 8287,
      "010": 8288,
      "à²ķà²²à²¤": 8289,
      "à²ľà²°à²¥": 8290,
      "ĠCan": 8291,
      "omi": 8292,
      "iler": 8293,
      "ĠTele": 8294,
      "Ġ182": 8295,
      "à²²à²Ĺà²¡à²²": 8296,
      "Ġhome": 8297,
      "Ġà²İà²¡à²Ĺà²¡": 8298,
      "organ": 8299,
      "others": 8300,
      "450": 8301,
      "aup": 8302,
      "à²¾à²¿à²Ĥ": 8303,
      "à²¯à²Łà²¨": 8304,
      "Ġà²Ĩà²Ĺà²°à²µ": 8305,
      "à²ħà²µà²§": 8306,
      "à²ĩà²°à²²": 8307,
      "Ġ1951": 8308,
      "Ġtest": 8309,
      "Ġsingh": 8310,
      "Ġbirthday": 8311,
      "ayana": 8312,
      "ought": 8313,
      "Ġnow": 8314,
      "rust": 8315,
      "Ð¼Ð¸": 8316,
      ",,,": 8317,
      "Ġneed": 8318,
      "ÑģÑĤÐ°": 8319,
      ".(": 8320,
      "130": 8321,
      "odiac": 8322,
      "à²³à²¨à²¨": 8323,
      "Ġà²®à²ĸ": 8324,
      "à²Łà²Ł": 8325,
      "Ġà²°à²£à²°": 8326,
      "à²ħà²µà²ķ": 8327,
      "oni": 8328,
      "à²īà²ķ": 8329,
      "ĠBus": 8330,
      "Ġbank": 8331,
      "chan": 8332,
      "ĠJay": 8333,
      "rip": 8334,
      "ournal": 8335,
      "aster": 8336,
      "à°¨": 8337,
      "ĠPanchayat": 8338,
      "Mar": 8339,
      "PG": 8340,
      "fl": 8341,
      "ĠÑĢÐ°": 8342,
      "à²¯à²¤à²µ": 8343,
      "à²ļà²²à²µ": 8344,
      "à³Ī)": 8345,
      "Ġà²ĺà²¨à²µ": 8346,
      "à²¸à²¬à²¯à²¸": 8347,
      "Ġà²¹à²£à²®": 8348,
      "erica": 8349,
      "à²Ĺà²¨à²®à²ķ": 8350,
      "Ġwell": 8351,
      "à³®à³¯": 8352,
      "ida": 8353,
      "Ġà²ªà²°à²®à²ª": 8354,
      "ðŁĻı": 8355,
      "Ġhealth": 8356,
      "display": 8357,
      "bjp": 8358,
      "ny": 8359,
      "ÃĹ": 8360,
      "Ê®": 8361,
      "à²ļà²¨à²Ĺà²³": 8362,
      "à²ĸà²ļ": 8363,
      "à²«à²²à²¤": 8364,
      "à²¤à²¨à²¦à²µà²°": 8365,
      "rew": 8366,
      "Ġà²ĵà²ª": 8367,
      "Ġ1940": 8368,
      "à²¹à²°à²ªà²¨à²¹à²³": 8369,
      "ĠSang": 8370,
      "Ġà²¨à²µà²®": 8371,
      "oduc": 8372,
      "otor": 8373,
      "ĠÐŁ": 8374,
      "Ġgu": 8375,
      "Ġà²ĺà²Łà²ķà²Ĺà²³à²²": 8376,
      "Ġà³¨à³¦à³¦à³§": 8377,
      "à²¸à²¹à²ľà²µ": 8378,
      "Ġà²Ĺà²Ĺà²¨à²ļ": 8379,
      "ĠMBX": 8380,
      "rs": 8381,
      "Ġà²¨à²µà²£": 8382,
      "à²ªà²°à²°à²¨": 8383,
      "à²ĩà²ľ": 8384,
      "à²¸à²Ĺà²¸": 8385,
      "Ġdif": 8386,
      "Ġà²Ķà²·à²¦": 8387,
      "à²¹à²ķà²Ĺà²³": 8388,
      "Ġ132": 8389,
      "à²Ŀà²²": 8390,
      "osition": 8391,
      "à³¨à³¦à³§à³«": 8392,
      "Ġbeen": 8393,
      "ĠRajkumar": 8394,
      "AI": 8395,
      "Sh": 8396,
      "à³ĩ....": 8397,
      "à²®à²²à²¯": 8398,
      "Ġà²ļà²®à²ķ": 8399,
      "Ġà²Ĵà²£à²®": 8400,
      "à²¯à²ķà²ķ": 8401,
      "Ġà²ĸà²Ł": 8402,
      "à²ħà²°à²®à²¨": 8403,
      "Ġ320": 8404,
      "Ġà²īà²ªà²¸à²Ń": 8405,
      "ici": 8406,
      "Ġà²ħà²£à²¤": 8407,
      "ruary": 8408,
      "à²°à²¤à²°à²¤": 8409,
      "à³ģâĢĮ.": 8410,
      "PA": 8411,
      "SC": 8412,
      "ling": 8413,
      "za": 8414,
      "à²ķà²£à²¦": 8415,
      "Ġà²¹à²°à²£": 8416,
      "à²£à²®à²¯": 8417,
      "Ġà²ķà²²à²¹à²¦": 8418,
      "Ġà²ķà²¨à²µà²°": 8419,
      "Ġà²Ĩà²¦à²µ": 8420,
      "à²Ĺà²¡à²¦à²µà²°": 8421,
      "à²¸à²¨à²Ĺà²³à²²": 8422,
      "Ġà²Ĵà²³à²¬à²°": 8423,
      "Ġ155": 8424,
      "Ġà²ķà²µà²¡": 8425,
      "Ġ147": 8426,
      "Ġcons": 8427,
      "à²ľà²¨à²Ĺà²°à²¦à²²": 8428,
      "Ġchit": 8429,
      "ANN": 8430,
      "à²Ĺà²¢à²¦à²²": 8431,
      "ÃĩÃī": 8432,
      "Ã§": 8433,
      "à²ķà²Łà²¦": 8434,
      "à²¹à²³à²¦": 8435,
      "à²ľà²Ńà²µà²¨à²¦à²²": 8436,
      "à²°à²µà²§à²¨": 8437,
      "Ġà²ıà²ķà²¨": 8438,
      "Ġà²ħà²²à²®": 8439,
      "à²łà²¸": 8440,
      "Ġmi": 8441,
      "à²Ĵà²Ĺ": 8442,
      "Ġà²¤à²³à²ª": 8443,
      "apoor": 8444,
      "paign": 8445,
      "à²£à²µà²²à²¯à²¦": 8446,
      "ĠUpd": 8447,
      "yeddyurappa": 8448,
      "à²¿âĢĺ": 8449,
      "à²ĤâĢĿ": 8450,
      "Ġà²®à²Łà²¨": 8451,
      "Ġà²¸à²Ł": 8452,
      "à²²à²µà²·": 8453,
      "anahalli": 8454,
      "ĠBab": 8455,
      "rastructure": 8456,
      "ĠPh": 8457,
      "ĠHR": 8458,
      "Ġactor": 8459,
      "ĠGul": 8460,
      "à³®à³®": 8461,
      "à²ĵà²²": 8462,
      "cept": 8463,
      "Ġà²¨à²µà²°à²¸": 8464,
      "Ġplay": 8465,
      "Ġyears": 8466,
      "riyanka": 8467,
      "Ġur": 8468,
      "à²Łà²Ńà²¦": 8469,
      "à²¹à²µà²²": 8470,
      "à²¹à²§à²¨": 8471,
      "à²²à²µà²ķ": 8472,
      "à²¦à²µà²ķ": 8473,
      "Ġà²Ĳà²µà²¨": 8474,
      "ĠRed": 8475,
      "aly": 8476,
      "ĠSk": 8477,
      "ĠFOR": 8478,
      "ĠWork": 8479,
      "Ġresp": 8480,
      "ĠStory": 8481,
      "ized": 8482,
      "1994": 8483,
      "ĠEng": 8484,
      "rasad": 8485,
      "499": 8486,
      "æĹ": 8487,
      "à²ķà²Łà²¨": 8488,
      "à²ķà²¬à²²": 8489,
      "Ġà²¤à²³à²¦": 8490,
      "Ġà²°à²¯": 8491,
      "Ġà²ļà²³à²ķ": 8492,
      "à²Ĳà²¶": 8493,
      "ĠChe": 8494,
      "here": 8495,
      "ĠWatch": 8496,
      "Ġlook": 8497,
      "Ġà²ļà²®à²ļà²¦à²·": 8498,
      "Ġprop": 8499,
      "à°°": 8500,
      "Ġà²¸à²«à²²à²¤": 8501,
      "ĠShop": 8502,
      "ishwavani": 8503,
      "mo": 8504,
      "Ġà²®à²Łà²ķ": 8505,
      "Ġà²Ĩà²³à²²": 8506,
      "à²Ńà²ľà²ķ": 8507,
      "Ġà²Īà²°à²ª": 8508,
      "Ġmad": 8509,
      "ĠRSS": 8510,
      "Ġbab": 8511,
      "ĠLove": 8512,
      "à²®à²³à²µà²³": 8513,
      "ĠðŁĺ": 8514,
      "ĠEnglish": 8515,
      "MD": 8516,
      "du": 8517,
      "Ã¨": 8518,
      "Ãĥ": 8519,
      "à²°à²¯à²µ": 8520,
      "à²°à²°à²¸": 8521,
      "à³Ĩ|": 8522,
      "Ġà²¹à²³à²Ĺà²¨": 8523,
      "à²¬à²¦à²µà²°à²¨": 8524,
      "à²£à²¸à²µ": 8525,
      "à²ĸà²¸": 8526,
      "à²¿.\"": 8527,
      "..âĢĻ": 8528,
      "à²¸à²°à²Ĺà²³": 8529,
      "Ġà²ħà²°à²¶": 8530,
      "Ġà²ķà²²à²¶": 8531,
      "Ġà²°à²¸à²ķ": 8532,
      "eni": 8533,
      "ĠSam": 8534,
      "à²¨à²Ĺà²°à²ª": 8535,
      "Ġ134": 8536,
      "Ġ138": 8537,
      "Ġà³¦à³«": 8538,
      "Sp": 8539,
      "WhatsApp": 8540,
      "tr": 8541,
      "Ġru": 8542,
      "Ġund": 8543,
      "Ġà²İà²¡à²°": 8544,
      "à³ģ.,": 8545,
      "Ġà²¦à²Ĺ": 8546,
      "à²°à²£à²¹": 8547,
      "Ġà²ĸà²¦à²°": 8548,
      "à²ĺà²²à²°": 8549,
      "Ġà²§à²¨à²µ": 8550,
      "âĢĮà²Ĥ": 8551,
      "Ġtrans": 8552,
      "ray": 8553,
      "ĠGa": 8554,
      "ĠÐ°": 8555,
      "Ġà²Ŀà²²à²ķ": 8556,
      "Ġcolors": 8557,
      "Ãĩà²²": 8558,
      "ĠSupreme": 8559,
      "Ġà²®à²¨à²ķà²²à²ķ": 8560,
      "Ġhelp": 8561,
      "vel": 8562,
      "à²µà²¦à²°à²²": 8563,
      "Ġà²¨à²ļ": 8564,
      "à²ĸà²°à²°": 8565,
      "Ġà²«à²²à²¦": 8566,
      "à²Ĺà²²à²¨": 8567,
      "Ġà²ħà²µà²¸à²°à²¦": 8568,
      "à²Ĳà²Ĳà²Ł": 8569,
      "rama": 8570,
      "ĠPolitics": 8571,
      "à³Įà²Ĥ,": 8572,
      "Ġà²ķà²®à²²à²ķ": 8573,
      "à³®à³ª": 8574,
      "char": 8575,
      "Ġhow": 8576,
      "iri": 8577,
      "Ġà²¹à²°à²¡à²¦": 8578,
      "ource": 8579,
      "augh": 8580,
      "Ġ365": 8581,
      "Ġà²ªà²¯à²£à²¦à²²": 8582,
      "Ġteach": 8583,
      "Ġwhich": 8584,
      "à²¨à²Łà²¨": 8585,
      "à²ľà²³": 8586,
      "Ġà²İà²Ĳ": 8587,
      "Ġà²Ĵà²£à²¦": 8588,
      "Ġà²Ĵà²²à²µà²¨": 8589,
      "Ġà²¬à²³à²Ĺà²¦à²µà²°": 8590,
      "...âĢĻ": 8591,
      "lease": 8592,
      "Ġà²Ĩà²¡à²®": 8593,
      "à³®à³Ń": 8594,
      "à³ģ):": 8595,
      "!!!!": 8596,
      "ige": 8597,
      "Ġ270": 8598,
      "Ġ1963": 8599,
      "Ġà²¹à²łà²®": 8600,
      "ffect": 8601,
      "Ġà²°à²Ńà²¸à²µ": 8602,
      "ĠDecember": 8603,
      "KS": 8604,
      "ball": 8605,
      "minist": 8606,
      "Ġà²ªà²¹à²°": 8607,
      "à²ļà²³à²Ĺ": 8608,
      "à²¤à²°à²ĸ": 8609,
      "à³Į:": 8610,
      "à²¦à²¨à²µà²¨à²¦": 8611,
      "à²Łà²²à²²": 8612,
      "Ġsystem": 8613,
      "rain": 8614,
      "Ġdarshan": 8615,
      "eld": 8616,
      "ĠUtt": 8617,
      "Ð½Ðµ": 8618,
      "Ġà³¨à³¦à³¦à³©": 8619,
      "Ġà²ħà²¸à²¹à²ľà²µ": 8620,
      "à²¿âĢ¦!": 8621,
      "777": 8622,
      "ï¿½ï¿½ï¿½ï¿½ï¿½ï¿½Ì³": 8623,
      "Ġà²¹à²łà²ķ": 8624,
      "à²¼à²¾": 8625,
      "Ġlett": 8626,
      "à¯ģ": 8627,
      "Ġwoman": 8628,
      "%,": 8629,
      "){": 8630,
      "DC": 8631,
      "Le": 8632,
      "work": 8633,
      "åº": 8634,
      "à²¿à³Ģ": 8635,
      "âĢ¨": 8636,
      "Ġà²¦à²³à²Ĺà²³": 8637,
      "Ġà²¶à²¹à²°": 8638,
      "Ġà²ħà²µà²°à²ª": 8639,
      "ĠAsh": 8640,
      "Ġà²¤à²¡à²µà²°": 8641,
      "à³Įà²Ĥ)": 8642,
      "ety": 8643,
      "ĠÐĴ": 8644,
      "round": 8645,
      "Ġà²īà²ªà²ķà²°à²£à²µ": 8646,
      "!\"": 8647,
      "'t": 8648,
      "Al": 8649,
      "ris": 8650,
      "rup": 8651,
      "uel": 8652,
      "Ö³": 8653,
      "Ġì": 8654,
      "à³ĭâĢĿ": 8655,
      "à²ļà²¹": 8656,
      "Ġà²Ńà²°à²£": 8657,
      "à³ģ,,": 8658,
      "à²ĸà²¨à²¨": 8659,
      "à³Ĩ,,": 8660,
      "à²°à²µà²¤": 8661,
      "à³Į,": 8662,
      "Ġà²ħà²¦à²·": 8663,
      "à³į.[": 8664,
      "ĠKrishna": 8665,
      "à²°à²¹à²¤": 8666,
      "à²¬à²²à²¤": 8667,
      "ĠNit": 8668,
      "Ġ850": 8669,
      "ĠAN": 8670,
      "Ġà²¨à²µà²ķà²°": 8671,
      "Ġdocument": 8672,
      "à²¾?]": 8673,
      "Ġ///": 8674,
      "abh": 8675,
      "ift": 8676,
      "Ġnear": 8677,
      "!âĢĿ": 8678,
      "à²µà²ľà²ķ": 8679,
      "à²¯à²¶à²µ": 8680,
      "Ġà²¨à²µà²µ": 8681,
      "Ġà²ªà²ļà²ķ": 8682,
      "à²¿.[": 8683,
      "Ġà²«à²¯": 8684,
      "à³į,,": 8685,
      "à²¨à²Ĺà²³à²·": 8686,
      "ĠSong": 8687,
      "Ġsabha": 8688,
      "esc": 8689,
      "ĠOF": 8690,
      "à³®à³¬": 8691,
      "Ġà³ªà³¦à³¦": 8692,
      "Ð¾Ð±": 8693,
      "ĠPradesh": 8694,
      "Ø§ÙĨ": 8695,
      "ĠØ¨": 8696,
      "MeToo": 8697,
      "åĪ": 8698,
      "Ġà²İà²¶": 8699,
      "Ġà²°à²¥à²µà²¨": 8700,
      "Ġà²Ĺà²¸à²Ĺà²¸": 8701,
      "à²ĸà²¤à²¨": 8702,
      "à²¬à²°à²¬": 8703,
      "à²®à²¨à²µà²®": 8704,
      "à²°à²°à²¹": 8705,
      "à²ķà²²à²¨à²Ĺà²³": 8706,
      "à²¡à²Ĺà²¨": 8707,
      "à²·à²ķà²¨à²¨": 8708,
      "125": 8709,
      "iving": 8710,
      "ÑĤÐ¾": 8711,
      "haran": 8712,
      "Ġà²¨à²Łà²°à²¨": 8713,
      "à²Ķà²°": 8714,
      "à²ļà²²à²¨à²µà²¨": 8715,
      "umber": 8716,
      "Ð·Ð°": 8717,
      "ADA": 8718,
      "']": 8719,
      "Í¨": 8720,
      "Ö·": 8721,
      "à²¿à³į": 8722,
      "à²¦à²ľ": 8723,
      "Ġà²¨à²¤à²¦": 8724,
      "à³Ĩ,...": 8725,
      "à²¡à²²à²ķ": 8726,
      "à²ĺà²®": 8727,
      "à³¦à³«": 8728,
      "à³įâĢįà²Ĥ": 8729,
      "Ġ1942": 8730,
      "Ġdelhi": 8731,
      "à³®à³¨": 8732,
      "à²ļà²ķà²Ĺà²³": 8733,
      "à³¨à³¦à³§à³ª": 8734,
      "ollar": 8735,
      "hatsapp": 8736,
      "Ġaccident": 8737,
      "Ġleader": 8738,
      "dict": 8739,
      "uf": 8740,
      "Î¿": 8741,
      "à²ķà²¸à²¦": 8742,
      "à²®à²¹à²°": 8743,
      "Ġà²¨à²Ŀ": 8744,
      "à²ªà²¦à²°à²²": 8745,
[...]
